/* Generated by Edge Impulse
 *
 * Permission is hereby granted, free of charge, to any person obtaining a copy
 * of this software and associated documentation files (the "Software"), to deal
 * in the Software without restriction, including without limitation the rights
 * to use, copy, modify, merge, publish, distribute, sublicense, and/or sell
 * copies of the Software, and to permit persons to whom the Software is
 * furnished to do so, subject to the following conditions:
 *
 * The above copyright notice and this permission notice shall be included in
 * all copies or substantial portions of the Software.
 *
 * THE SOFTWARE IS PROVIDED "AS IS", WITHOUT WARRANTY OF ANY KIND, EXPRESS OR
 * IMPLIED, INCLUDING BUT NOT LIMITED TO THE WARRANTIES OF MERCHANTABILITY,
 * FITNESS FOR A PARTICULAR PURPOSE AND NONINFRINGEMENT. IN NO EVENT SHALL THE
 * AUTHORS OR COPYRIGHT HOLDERS BE LIABLE FOR ANY CLAIM, DAMAGES OR OTHER
 * LIABILITY, WHETHER IN AN ACTION OF CONTRACT, TORT OR OTHERWISE, ARISING FROM,
 * OUT OF OR IN CONNECTION WITH THE SOFTWARE OR THE USE OR OTHER DEALINGS IN THE
 * SOFTWARE.
 */

#ifndef _EI_CLASSIFIER_TFLITE_TRAINED_H_
#define _EI_CLASSIFIER_TFLITE_TRAINED_H_

#define EI_CLASSIFIER_TFLITE_ARENA_SIZE     3385

#if defined __GNUC__
#define ALIGN(X) __attribute__((aligned(X)))
#elif defined _MSC_VER
#define ALIGN(X) __declspec(align(X))
#elif defined __TASKING__
#define ALIGN(X) __align(X)
#else
#define ALIGN(X)
#endif
ALIGN(16) const unsigned char trained_tflite[] = {
  0x1c, 0x00, 0x00, 0x00, 0x54, 0x46, 0x4c, 0x33, 0x14, 0x00, 0x20, 0x00,
  0x1c, 0x00, 0x18, 0x00, 0x14, 0x00, 0x10, 0x00, 0x0c, 0x00, 0x00, 0x00,
  0x08, 0x00, 0x04, 0x00, 0x14, 0x00, 0x00, 0x00, 0x1c, 0x00, 0x00, 0x00,
  0x8c, 0x00, 0x00, 0x00, 0xbc, 0x00, 0x00, 0x00, 0xc8, 0x3d, 0x00, 0x00,
  0xd8, 0x3d, 0x00, 0x00, 0x90, 0x42, 0x00, 0x00, 0x03, 0x00, 0x00, 0x00,
  0x01, 0x00, 0x00, 0x00, 0x10, 0x00, 0x00, 0x00, 0x00, 0x00, 0x0a, 0x00,
  0x10, 0x00, 0x0c, 0x00, 0x08, 0x00, 0x04, 0x00, 0x0a, 0x00, 0x00, 0x00,
  0x0c, 0x00, 0x00, 0x00, 0x1c, 0x00, 0x00, 0x00, 0x3c, 0x00, 0x00, 0x00,
  0x0f, 0x00, 0x00, 0x00, 0x73, 0x65, 0x72, 0x76, 0x69, 0x6e, 0x67, 0x5f,
  0x64, 0x65, 0x66, 0x61, 0x75, 0x6c, 0x74, 0x00, 0x01, 0x00, 0x00, 0x00,
  0x04, 0x00, 0x00, 0x00, 0xc4, 0xff, 0xff, 0xff, 0x0a, 0x00, 0x00, 0x00,
  0x04, 0x00, 0x00, 0x00, 0x08, 0x00, 0x00, 0x00, 0x6f, 0x75, 0x74, 0x70,
  0x75, 0x74, 0x5f, 0x30, 0x00, 0x00, 0x00, 0x00, 0x01, 0x00, 0x00, 0x00,
  0x04, 0x00, 0x00, 0x00, 0x1e, 0xc2, 0xff, 0xff, 0x04, 0x00, 0x00, 0x00,
  0x01, 0x00, 0x00, 0x00, 0x78, 0x00, 0x00, 0x00, 0x01, 0x00, 0x00, 0x00,
  0x0c, 0x00, 0x00, 0x00, 0x08, 0x00, 0x0c, 0x00, 0x08, 0x00, 0x04, 0x00,
  0x08, 0x00, 0x00, 0x00, 0x0c, 0x00, 0x00, 0x00, 0x04, 0x00, 0x00, 0x00,
  0x13, 0x00, 0x00, 0x00, 0x6d, 0x69, 0x6e, 0x5f, 0x72, 0x75, 0x6e, 0x74,
  0x69, 0x6d, 0x65, 0x5f, 0x76, 0x65, 0x72, 0x73, 0x69, 0x6f, 0x6e, 0x00,
  0x0d, 0x00, 0x00, 0x00, 0x08, 0x3d, 0x00, 0x00, 0x00, 0x3d, 0x00, 0x00,
  0xe4, 0x3c, 0x00, 0x00, 0xac, 0x3c, 0x00, 0x00, 0x4c, 0x3c, 0x00, 0x00,
  0xfc, 0x03, 0x00, 0x00, 0xcc, 0x00, 0x00, 0x00, 0x44, 0x00, 0x00, 0x00,
  0x3c, 0x00, 0x00, 0x00, 0x34, 0x00, 0x00, 0x00, 0x2c, 0x00, 0x00, 0x00,
  0x24, 0x00, 0x00, 0x00, 0x04, 0x00, 0x00, 0x00, 0x9a, 0xc2, 0xff, 0xff,
  0x04, 0x00, 0x00, 0x00, 0x10, 0x00, 0x00, 0x00, 0x31, 0x2e, 0x35, 0x2e,
  0x30, 0x00, 0x00, 0x00, 0x00, 0x00, 0x00, 0x00, 0x00, 0x00, 0x00, 0x00,
  0xa0, 0xbe, 0xff, 0xff, 0xa4, 0xbe, 0xff, 0xff, 0xa8, 0xbe, 0xff, 0xff,
  0xac, 0xbe, 0xff, 0xff, 0xc6, 0xc2, 0xff, 0xff, 0x04, 0x00, 0x00, 0x00,
  0x78, 0x00, 0x00, 0x00, 0xf9, 0x97, 0x40, 0xbe, 0x71, 0x6b, 0x1a, 0xbf,
  0x29, 0xa2, 0x17, 0xbf, 0xb2, 0x1c, 0x11, 0x3f, 0x4e, 0x3c, 0x90, 0x3e,
  0xe0, 0x89, 0x9a, 0xbc, 0x2e, 0xec, 0x70, 0x3e, 0x43, 0x7d, 0x4b, 0x3e,
  0x4b, 0x03, 0xf3, 0xbe, 0x59, 0x4c, 0x8a, 0xbd, 0xa3, 0x94, 0xc3, 0x3e,
  0xa0, 0x20, 0x73, 0xbd, 0xb6, 0xdc, 0x0c, 0x3f, 0x84, 0xb8, 0xec, 0xbe,
  0xbd, 0x21, 0x99, 0x3e, 0x00, 0x47, 0x5a, 0x3b, 0x8d, 0xd6, 0xf7, 0xbc,
  0x4e, 0xd3, 0x80, 0x3e, 0x7b, 0xa3, 0xe3, 0x3e, 0x93, 0x7e, 0x83, 0x3d,
  0x4d, 0x3a, 0x2f, 0xbf, 0xf0, 0xf3, 0x80, 0xbd, 0x5e, 0xa4, 0x3a, 0x3d,
  0xb9, 0xc7, 0xb0, 0x3e, 0x41, 0x69, 0xe1, 0x3e, 0xbc, 0x3b, 0x22, 0x3e,
  0x5f, 0x94, 0x13, 0xbe, 0xe1, 0x0d, 0x54, 0xbd, 0x03, 0x12, 0xef, 0x3d,
  0xc6, 0xea, 0x9f, 0xbe, 0x4a, 0xc3, 0xff, 0xff, 0x04, 0x00, 0x00, 0x00,
  0x20, 0x03, 0x00, 0x00, 0xdd, 0x1e, 0xc5, 0xbe, 0xd3, 0x2c, 0x96, 0xbc,
  0xc0, 0x62, 0xf4, 0x3d, 0x06, 0xa3, 0x8d, 0x3d, 0x74, 0xc9, 0xb4, 0x3e,
  0x26, 0x0f, 0x86, 0xbe, 0xb6, 0x07, 0xfb, 0xbd, 0x4f, 0x75, 0x98, 0x3d,
  0x19, 0xf1, 0xef, 0xbe, 0xee, 0x21, 0xcb, 0xbe, 0x63, 0x2e, 0x0d, 0xbe,
  0x5d, 0x30, 0x9b, 0xbe, 0xe6, 0x89, 0xc4, 0x3e, 0xc0, 0xa1, 0xae, 0x3e,
  0x96, 0x7f, 0xff, 0xbd, 0xce, 0x4e, 0x23, 0x3b, 0xe0, 0xa5, 0xc0, 0xbe,
  0x24, 0xba, 0x67, 0x3d, 0x0e, 0x77, 0x02, 0xbe, 0x01, 0xda, 0x47, 0x3d,
  0x86, 0xaa, 0x8f, 0xbe, 0xc8, 0x3c, 0x80, 0x3d, 0x5d, 0xc3, 0x5d, 0xbe,
  0xd4, 0xcc, 0x2a, 0x3e, 0xc0, 0xad, 0xd8, 0x3d, 0x58, 0x2c, 0x1c, 0x3d,
  0x08, 0x9e, 0x99, 0x3e, 0x22, 0x90, 0x41, 0xbe, 0xb0, 0x49, 0x1f, 0xbe,
  0x86, 0x5d, 0x9f, 0xbe, 0x28, 0x9a, 0x8c, 0x3d, 0x3e, 0x2f, 0xaa, 0xbe,
  0x2c, 0xbb, 0xcf, 0xbd, 0x36, 0x5d, 0x06, 0xbe, 0xeb, 0x7f, 0xa9, 0xbe,
  0x72, 0x10, 0xbe, 0xbe, 0xce, 0xc5, 0x34, 0xbe, 0x00, 0x80, 0x90, 0x3e,
  0x1c, 0x95, 0x54, 0x3e, 0xfe, 0xa2, 0xbc, 0xbe, 0x2c, 0xfb, 0xe3, 0xbe,
  0xf5, 0x50, 0x93, 0x3e, 0xd1, 0xf5, 0xc0, 0x3d, 0x87, 0x89, 0x67, 0xbe,
  0xd8, 0x60, 0x88, 0x3e, 0xb8, 0x6a, 0x8b, 0xbc, 0x95, 0x0e, 0x2f, 0x3e,
  0xb3, 0x8e, 0x4c, 0xbe, 0x80, 0x16, 0xab, 0x3e, 0xb8, 0x5e, 0xa3, 0x3e,
  0x03, 0xc2, 0x85, 0xbe, 0x3f, 0xd9, 0x84, 0xbe, 0x0a, 0x40, 0x02, 0x3e,
  0x76, 0xc2, 0xd4, 0xbe, 0x24, 0x75, 0x00, 0x3e, 0x54, 0x44, 0x19, 0xbe,
  0x28, 0x26, 0xdd, 0xbd, 0xd2, 0x44, 0xd5, 0x3e, 0xc8, 0x70, 0xc6, 0xbe,
  0xd6, 0xa8, 0x59, 0xbe, 0xd3, 0x49, 0xab, 0xbe, 0xf0, 0xe2, 0x87, 0xbd,
  0x18, 0xe0, 0x7d, 0xbe, 0xf2, 0x43, 0xae, 0xbe, 0x08, 0xde, 0x58, 0xbd,
  0xf1, 0x55, 0x58, 0x3e, 0x3d, 0x80, 0x91, 0x3e, 0xed, 0xe9, 0xad, 0x3e,
  0xae, 0x25, 0x91, 0x3e, 0x25, 0x93, 0x9f, 0xbe, 0xc0, 0x71, 0xb0, 0x3e,
  0xc9, 0x05, 0xef, 0x3d, 0xcd, 0xee, 0xaa, 0x3c, 0x70, 0xe4, 0x87, 0xbe,
  0x2a, 0x9a, 0xb5, 0xbd, 0x52, 0x34, 0xdf, 0x3e, 0x3f, 0x73, 0xdb, 0x3d,
  0x1f, 0x12, 0xf5, 0x3d, 0xf8, 0xe5, 0xe5, 0x3d, 0x1e, 0x99, 0x93, 0xbe,
  0x48, 0x87, 0x83, 0x3d, 0xc6, 0xc6, 0x30, 0x3d, 0x2d, 0x7a, 0x67, 0xbe,
  0xa7, 0x6b, 0x9e, 0xbe, 0xdb, 0xb7, 0xda, 0xbe, 0x18, 0x2a, 0xbd, 0x3e,
  0x09, 0xcf, 0x13, 0xbe, 0xc7, 0xc3, 0xcb, 0xbc, 0xd2, 0x39, 0x7a, 0xbe,
  0x96, 0x27, 0xe1, 0x3e, 0x60, 0xe2, 0xaf, 0x3c, 0xbd, 0x23, 0xd7, 0xbe,
  0x8f, 0xd8, 0xbd, 0xbe, 0x7c, 0x37, 0x33, 0x3e, 0x63, 0x7a, 0x42, 0xbd,
  0xc0, 0xee, 0xa5, 0x3d, 0x58, 0xdb, 0xa1, 0x3d, 0x56, 0x07, 0xc5, 0xbe,
  0x85, 0x1d, 0xe0, 0x3e, 0x88, 0x35, 0xd0, 0x3d, 0x86, 0x07, 0x75, 0x3e,
  0xda, 0x39, 0x9e, 0x3e, 0x72, 0xfd, 0xbf, 0xbe, 0x6d, 0xb6, 0x7b, 0x3c,
  0xf2, 0xab, 0xa7, 0xbe, 0xc8, 0xc3, 0xe8, 0xbd, 0x87, 0x11, 0xb1, 0xbc,
  0x01, 0xbb, 0xe9, 0xbd, 0x56, 0x4c, 0xbe, 0x3e, 0xd1, 0x0a, 0xce, 0xbe,
  0xcc, 0x37, 0xf1, 0xbe, 0xaf, 0x4e, 0xc2, 0x3e, 0x84, 0x4b, 0xb9, 0xbe,
  0x6a, 0x9d, 0x48, 0x3e, 0x9f, 0x13, 0x65, 0xbe, 0x38, 0xdc, 0x9e, 0x3e,
  0x69, 0x84, 0xcc, 0xbe, 0x48, 0x2f, 0x84, 0xbd, 0xbb, 0x5d, 0xbd, 0xbe,
  0xc6, 0x3c, 0x8a, 0x3e, 0xfc, 0xd4, 0xa5, 0x3e, 0xea, 0x81, 0x18, 0xbe,
  0xcb, 0x8d, 0x32, 0x3d, 0x70, 0x7c, 0xa4, 0x3e, 0x26, 0xae, 0x7c, 0x3e,
  0x32, 0x02, 0x0e, 0xbe, 0x78, 0x04, 0x3f, 0x3d, 0x13, 0xcd, 0x3b, 0x3e,
  0x28, 0x9f, 0x2f, 0x3e, 0xd9, 0x2e, 0xb3, 0x3e, 0x9f, 0x0f, 0x69, 0xbe,
  0x91, 0x7f, 0x6f, 0x3e, 0xde, 0xdd, 0xe6, 0xbe, 0xc8, 0xf1, 0x63, 0xbd,
  0xe1, 0x6b, 0x44, 0xbd, 0xe4, 0xc3, 0x64, 0xbd, 0x92, 0x36, 0x1a, 0x3e,
  0xa1, 0x07, 0xe1, 0xbd, 0x2a, 0xf5, 0x0b, 0x3e, 0xf5, 0x19, 0x5d, 0xbe,
  0x14, 0xf3, 0x84, 0xbe, 0x84, 0x37, 0xc1, 0x3e, 0x56, 0x0b, 0x7b, 0xbe,
  0x9b, 0x01, 0xd6, 0xbe, 0xfb, 0x27, 0x14, 0xbe, 0xb1, 0x06, 0xfc, 0xbd,
  0xd2, 0x20, 0x08, 0xbe, 0x6e, 0xbf, 0xbc, 0xbe, 0x47, 0x85, 0xba, 0x3e,
  0x15, 0x74, 0x8d, 0x3e, 0xe0, 0x06, 0x62, 0x3e, 0x0e, 0x68, 0xb3, 0x3e,
  0xde, 0x32, 0x09, 0xbe, 0x38, 0x42, 0x01, 0xbd, 0xc4, 0xb1, 0xd8, 0xbd,
  0x81, 0xd7, 0x5d, 0xbe, 0x92, 0x88, 0x99, 0xbe, 0xf6, 0x76, 0x80, 0x3c,
  0x15, 0x87, 0x40, 0xbe, 0x7f, 0x07, 0x0a, 0x3e, 0x5e, 0xda, 0xb2, 0xbe,
  0x9a, 0xb4, 0x86, 0x3e, 0xf8, 0x11, 0x5e, 0x3c, 0xa0, 0x97, 0x3d, 0x3e,
  0xb3, 0x1f, 0xc8, 0x3e, 0x25, 0x73, 0x04, 0xbd, 0xd4, 0xea, 0x6b, 0x3e,
  0x9b, 0x1e, 0xdd, 0xbe, 0x72, 0x94, 0xc9, 0xbd, 0x16, 0x44, 0xa3, 0xbe,
  0x46, 0xc1, 0x22, 0x3e, 0x5d, 0xd8, 0x87, 0x3e, 0xe6, 0xad, 0xba, 0x3e,
  0x6f, 0x50, 0xd4, 0x3e, 0x88, 0x43, 0xb0, 0xbd, 0x88, 0x7d, 0x3e, 0x3e,
  0x2e, 0xe0, 0xb7, 0xbe, 0x80, 0x22, 0xc3, 0x3e, 0x16, 0x6a, 0x50, 0xbc,
  0x5c, 0xe7, 0x1d, 0x3c, 0xe0, 0xe2, 0x30, 0xbe, 0x71, 0xad, 0x0d, 0x3e,
  0x50, 0xfd, 0xd2, 0x3d, 0x82, 0x4f, 0xa8, 0x3e, 0xb1, 0x06, 0xa0, 0xbe,
  0xa3, 0x48, 0x88, 0x3e, 0x75, 0xb4, 0x9a, 0x3e, 0xbc, 0xfd, 0x66, 0xbe,
  0xd1, 0x12, 0xa4, 0x3e, 0x53, 0xfc, 0x1e, 0xbe, 0x67, 0xf6, 0x95, 0xbd,
  0xee, 0xd4, 0x9f, 0x3d, 0x3c, 0xc1, 0xb3, 0xbe, 0x9c, 0x51, 0x17, 0xbe,
  0x2c, 0x9d, 0xb1, 0xbe, 0x46, 0xb1, 0xd5, 0x3d, 0x2b, 0x6c, 0xdd, 0x3e,
  0x26, 0xa9, 0xa3, 0x3e, 0x47, 0xf2, 0x17, 0xbe, 0x25, 0x1c, 0xa2, 0x3e,
  0x76, 0xc6, 0xff, 0xff, 0x04, 0x00, 0x00, 0x00, 0x40, 0x38, 0x00, 0x00,
  0x53, 0xe0, 0x0a, 0xbe, 0xd4, 0xb1, 0xdd, 0xbd, 0x9d, 0x2b, 0xe2, 0xbd,
  0x7b, 0xa7, 0x8a, 0x3c, 0x67, 0x67, 0x58, 0xbc, 0x19, 0x5b, 0x7f, 0x3c,
  0xc3, 0x9e, 0x06, 0xbe, 0x16, 0x1f, 0xe4, 0xbd, 0x49, 0xc2, 0x02, 0xbe,
  0xdd, 0xae, 0x87, 0x3c, 0x37, 0x82, 0x39, 0x3e, 0xab, 0xa8, 0xb3, 0xbd,
  0x78, 0x6e, 0xfd, 0xbd, 0x85, 0x1f, 0x19, 0x3e, 0xd6, 0x20, 0x3b, 0x3d,
  0xc1, 0x5a, 0x3a, 0x3e, 0x34, 0x58, 0x2c, 0x3e, 0x3f, 0x80, 0x3b, 0xbd,
  0x29, 0x45, 0xdc, 0x3d, 0xfe, 0xab, 0x9e, 0xbd, 0xdc, 0x78, 0x05, 0x3e,
  0x5f, 0xaf, 0x0d, 0xbe, 0xf4, 0x8f, 0x18, 0x3e, 0xb6, 0xcf, 0x1d, 0xbe,
  0x1a, 0xc7, 0xac, 0xbd, 0xdc, 0xe5, 0xb3, 0xbd, 0x9c, 0x11, 0x16, 0xbe,
  0xc1, 0x20, 0x7a, 0x3d, 0xfc, 0xbc, 0xb8, 0xbc, 0x7e, 0x6c, 0xaa, 0xbd,
  0x66, 0xe2, 0xaa, 0xbd, 0x62, 0xc9, 0x33, 0xbe, 0x92, 0xf0, 0x04, 0x3b,
  0x28, 0xa6, 0x28, 0x3e, 0xb7, 0xee, 0x7d, 0x3d, 0x2e, 0x4a, 0x7c, 0xbd,
  0xd4, 0xe5, 0xc6, 0xbd, 0x47, 0xe4, 0x25, 0x3e, 0xde, 0x70, 0xa1, 0x3c,
  0x25, 0x69, 0x0e, 0x3b, 0x13, 0x80, 0xdf, 0x3d, 0x86, 0xf6, 0x21, 0x3e,
  0xb1, 0xbe, 0x02, 0x3e, 0xe5, 0x6e, 0xca, 0x3d, 0xce, 0xff, 0x05, 0xbe,
  0x2b, 0x1b, 0x2d, 0x3d, 0x1b, 0xd5, 0x6d, 0x3c, 0x2b, 0x59, 0x6c, 0x3d,
  0xf2, 0x3c, 0x89, 0xbd, 0x5c, 0xd1, 0x70, 0x3d, 0xe5, 0x97, 0x77, 0x3d,
  0x3e, 0x59, 0x1a, 0x3e, 0xe8, 0x38, 0x07, 0xbe, 0x59, 0xaf, 0x12, 0x3e,
  0x11, 0xef, 0x73, 0x3c, 0x2d, 0x8d, 0xca, 0x3d, 0xd0, 0xab, 0x5f, 0x3b,
  0x9a, 0x84, 0x25, 0xbc, 0x92, 0x72, 0x98, 0xbb, 0x57, 0xbb, 0xca, 0x3b,
  0xfc, 0xe7, 0x11, 0x3d, 0xba, 0x70, 0x07, 0xbd, 0xfd, 0xa2, 0xa0, 0xbd,
  0x2f, 0x11, 0x5f, 0xbd, 0x47, 0xe7, 0x26, 0xbc, 0xee, 0xd8, 0x83, 0xbd,
  0x97, 0x94, 0xc1, 0x3d, 0x43, 0x1e, 0xb6, 0x3d, 0x58, 0x01, 0x1b, 0x3b,
  0x79, 0xe2, 0xe5, 0xbd, 0x33, 0x09, 0x20, 0x3e, 0xc8, 0x58, 0xbd, 0xbd,
  0x39, 0xdc, 0xcd, 0xbc, 0x73, 0x3d, 0x5e, 0x3d, 0xf6, 0xdf, 0x5e, 0xbd,
  0x7f, 0xda, 0x2b, 0x3e, 0x2e, 0x8a, 0xc7, 0x3d, 0xa3, 0xda, 0x13, 0x3e,
  0x4f, 0xc9, 0x18, 0x3b, 0x65, 0xa1, 0xde, 0x3d, 0x39, 0x13, 0xf8, 0x3d,
  0x5c, 0x1f, 0x8b, 0x3d, 0xfd, 0x44, 0x9f, 0x3d, 0x6d, 0xbd, 0xb0, 0x3d,
  0x5e, 0xf5, 0xf2, 0x39, 0xac, 0xfc, 0x69, 0x3d, 0x19, 0x2d, 0x51, 0xbd,
  0x52, 0x76, 0x91, 0x3d, 0x92, 0x59, 0x8c, 0xbc, 0x0e, 0x61, 0x03, 0x3e,
  0x62, 0x08, 0x04, 0x3e, 0x71, 0x4f, 0xca, 0xbd, 0x90, 0x0c, 0x22, 0x3c,
  0x92, 0x86, 0xcb, 0x3d, 0x68, 0x28, 0x42, 0x3d, 0x5a, 0x1a, 0x7f, 0xbc,
  0x08, 0x8b, 0x4f, 0x3d, 0x28, 0x2e, 0x9c, 0x3d, 0xc4, 0x7d, 0x71, 0x3c,
  0x08, 0xe6, 0x1e, 0x3e, 0x66, 0x54, 0x09, 0xbe, 0xed, 0x2d, 0xaf, 0xbd,
  0x98, 0xa9, 0xee, 0x3d, 0x70, 0x51, 0x4a, 0xbd, 0x74, 0x64, 0xd9, 0xbb,
  0x61, 0x2c, 0xf8, 0xbd, 0xbe, 0xe2, 0x90, 0x3d, 0x8f, 0x19, 0xfd, 0xbd,
  0xbd, 0xc0, 0x85, 0x3c, 0xf9, 0x2b, 0xa8, 0x3d, 0xae, 0x02, 0x16, 0x3d,
  0x79, 0x41, 0x4c, 0xbb, 0x4e, 0x3a, 0x8b, 0xbd, 0x4a, 0x38, 0x02, 0x3c,
  0x9d, 0xd7, 0x03, 0xbd, 0xeb, 0x95, 0x88, 0x3c, 0x24, 0xee, 0xd3, 0x3d,
  0xff, 0x15, 0x75, 0x3c, 0x49, 0x9a, 0x21, 0xbd, 0xa4, 0x2b, 0x14, 0xbd,
  0x71, 0x19, 0x10, 0x3e, 0xfc, 0x49, 0x96, 0x3d, 0x82, 0x9c, 0xe1, 0x3d,
  0xf5, 0xfb, 0x2e, 0x3e, 0x7f, 0xa2, 0x21, 0x3e, 0x7e, 0xc5, 0x18, 0xbe,
  0x13, 0x53, 0x03, 0x3e, 0xda, 0x3d, 0x92, 0xbd, 0xd2, 0xa8, 0xe9, 0x3d,
  0x75, 0x55, 0xda, 0xbd, 0x33, 0xae, 0x00, 0x3e, 0x80, 0xae, 0x1f, 0xbe,
  0xf5, 0x72, 0xf9, 0xbc, 0x27, 0xf5, 0xa2, 0xbd, 0xf0, 0x13, 0xfb, 0x3d,
  0x5c, 0x25, 0x81, 0xbd, 0x79, 0xd9, 0xb8, 0xbc, 0x78, 0x0a, 0x1c, 0x3e,
  0x21, 0xa8, 0xd9, 0x3c, 0xe3, 0xdd, 0xeb, 0x3d, 0x7a, 0xdd, 0xb7, 0x3d,
  0xc9, 0x28, 0x39, 0xbd, 0x0b, 0x19, 0x1f, 0xbe, 0x42, 0xb7, 0xbe, 0x3d,
  0xf1, 0x25, 0x3d, 0x3d, 0x9f, 0x5c, 0x52, 0x3e, 0xc1, 0xca, 0x30, 0x3c,
  0x0b, 0xb1, 0x09, 0xbe, 0xd2, 0x93, 0x44, 0x3d, 0x8e, 0x69, 0xad, 0x3d,
  0xfe, 0x45, 0xfe, 0x3d, 0xaa, 0x5c, 0xb5, 0x3d, 0xfd, 0x95, 0xd1, 0xbb,
  0xf9, 0xf3, 0x88, 0x3d, 0x6d, 0xe6, 0x42, 0x3e, 0x62, 0x59, 0xf0, 0x3d,
  0x56, 0xc3, 0xfe, 0x3b, 0xc3, 0x09, 0x66, 0x3d, 0xba, 0x44, 0x34, 0xbc,
  0x87, 0x93, 0x21, 0x3e, 0xbd, 0x86, 0xdf, 0xbc, 0x35, 0x72, 0x89, 0xbd,
  0x29, 0xce, 0x22, 0xbe, 0x99, 0xc2, 0x27, 0x3e, 0x2b, 0x91, 0xec, 0xbd,
  0x6a, 0x7b, 0x34, 0xbe, 0x20, 0xa7, 0xd6, 0x3d, 0xd0, 0x57, 0xf1, 0xbd,
  0x28, 0x7e, 0xd3, 0xbd, 0x88, 0x52, 0x39, 0x3e, 0x93, 0xf0, 0xa1, 0xba,
  0x91, 0x72, 0x31, 0xbd, 0xc5, 0xb1, 0x8f, 0xbd, 0x2f, 0xa9, 0x0c, 0x3e,
  0x07, 0x55, 0x0a, 0x3e, 0xcc, 0x57, 0xa4, 0xbd, 0xb0, 0x2f, 0x07, 0x3d,
  0xba, 0x42, 0xa7, 0x3d, 0x13, 0x75, 0x8e, 0x3d, 0xd5, 0x9d, 0x2d, 0x3e,
  0xad, 0x59, 0xf5, 0x3c, 0x34, 0xc7, 0x3d, 0x3d, 0x99, 0xa0, 0x85, 0x3c,
  0xc0, 0xfd, 0x96, 0xbd, 0x1a, 0xf2, 0x2a, 0x3d, 0x88, 0x06, 0x25, 0x3e,
  0x1b, 0xba, 0xf1, 0x3d, 0x77, 0xb8, 0x1a, 0x3e, 0x8a, 0x26, 0x02, 0xbe,
  0x53, 0xd7, 0xf3, 0x3d, 0x88, 0x2f, 0xcf, 0x3d, 0x51, 0x81, 0x88, 0xbd,
  0x85, 0x64, 0x17, 0xbd, 0x0e, 0x47, 0x12, 0xbe, 0xb1, 0xee, 0xc5, 0xbd,
  0x8f, 0xda, 0x73, 0xbd, 0x44, 0xcb, 0x59, 0xbd, 0x43, 0xbc, 0x06, 0xbe,
  0xce, 0x0e, 0x00, 0x3e, 0xdc, 0xcc, 0xad, 0x3d, 0xc9, 0x56, 0x18, 0x3b,
  0xd1, 0x79, 0xbf, 0xbd, 0x53, 0xad, 0x04, 0xbe, 0x40, 0xb1, 0xb7, 0xbd,
  0x6f, 0x80, 0x82, 0x3d, 0x2c, 0xa2, 0xaf, 0xbd, 0x6b, 0xd7, 0x5c, 0x3d,
  0x40, 0x3d, 0xb4, 0x3d, 0x81, 0xdf, 0xa5, 0xbd, 0x46, 0x45, 0xc1, 0x3c,
  0xbe, 0x2a, 0x10, 0x3e, 0xf6, 0xde, 0x28, 0x3e, 0xcf, 0xc3, 0x29, 0xbe,
  0x7e, 0xfd, 0xa4, 0xbc, 0x74, 0x77, 0x14, 0xbe, 0x26, 0x28, 0x24, 0x3e,
  0x72, 0x02, 0x47, 0xbd, 0xac, 0x96, 0xd4, 0x3d, 0xf2, 0xc4, 0x08, 0x3e,
  0x4b, 0xd6, 0x93, 0xbd, 0xe3, 0xed, 0xbb, 0xbd, 0xdb, 0x5b, 0x13, 0x3d,
  0xca, 0xe8, 0x33, 0x3d, 0x43, 0x02, 0x8f, 0x3c, 0xfd, 0x18, 0x05, 0xbe,
  0xf9, 0x0c, 0x1b, 0xbe, 0xed, 0xea, 0x4d, 0x3d, 0x9f, 0x93, 0xd4, 0x3b,
  0x87, 0x48, 0xaf, 0xbc, 0x53, 0x26, 0xd1, 0xbd, 0x97, 0xc7, 0xe4, 0x3d,
  0xe6, 0xb2, 0x36, 0x3e, 0x23, 0xc1, 0x13, 0xbe, 0x1b, 0x95, 0x90, 0xbd,
  0x72, 0x8d, 0x25, 0x3e, 0xf5, 0x52, 0x9e, 0xbc, 0x30, 0xf0, 0x0c, 0xbe,
  0x92, 0xa8, 0x25, 0x3e, 0x6b, 0xb0, 0x20, 0xbd, 0xae, 0x5b, 0x00, 0xbe,
  0x9c, 0x76, 0x1e, 0x3e, 0x00, 0x8b, 0xc7, 0x3c, 0x6f, 0x62, 0xab, 0xbd,
  0x1a, 0x13, 0xe2, 0x3d, 0x2b, 0xec, 0x47, 0xbd, 0xcd, 0xa7, 0x92, 0xbd,
  0x10, 0x76, 0x4d, 0x3d, 0x71, 0x0c, 0xf8, 0xbd, 0x72, 0x6e, 0xe0, 0x3d,
  0xda, 0x0d, 0x03, 0xbd, 0xd3, 0x56, 0x25, 0xbe, 0x6d, 0x61, 0xca, 0x3d,
  0x74, 0xbf, 0x1c, 0xbd, 0x8c, 0xb4, 0xaf, 0xbd, 0x04, 0xb7, 0xd5, 0x3d,
  0x6a, 0x3c, 0xe4, 0x3b, 0xb7, 0x80, 0xff, 0xbd, 0x2c, 0xbe, 0x17, 0xbe,
  0xa4, 0xf3, 0xd8, 0x3d, 0x32, 0x7a, 0x13, 0xbe, 0x70, 0x79, 0x11, 0x3e,
  0xd4, 0x19, 0xbf, 0xbd, 0x6e, 0x70, 0x0a, 0xbe, 0xbe, 0xbc, 0x1e, 0xbe,
  0x33, 0x5d, 0xb3, 0xbd, 0x41, 0x2d, 0x03, 0xbd, 0xce, 0x03, 0x0a, 0xbe,
  0x86, 0xf4, 0x12, 0x3e, 0x97, 0x66, 0x4e, 0xbd, 0x02, 0x7f, 0x16, 0xbe,
  0x24, 0x35, 0x19, 0x3e, 0xfa, 0x76, 0xb3, 0x3a, 0x40, 0x84, 0x06, 0xbe,
  0x06, 0x68, 0x02, 0xbe, 0x77, 0x61, 0x36, 0xbe, 0x6d, 0x0a, 0x18, 0x3e,
  0x97, 0x0b, 0x82, 0x3c, 0xc1, 0x54, 0x1f, 0x3e, 0x0b, 0x67, 0x22, 0xbe,
  0xb7, 0x7e, 0x21, 0xbe, 0x92, 0x55, 0x29, 0xbc, 0xfb, 0xc7, 0x1a, 0x3e,
  0x2a, 0x9a, 0xe0, 0xbd, 0xad, 0x9e, 0xf3, 0x3d, 0x79, 0x72, 0xc2, 0xbd,
  0x30, 0x26, 0x1e, 0x3e, 0xbb, 0x77, 0xf3, 0xbd, 0x91, 0xfe, 0x30, 0x3d,
  0x1d, 0x9f, 0x45, 0xbd, 0x7e, 0x74, 0x8c, 0xbd, 0xab, 0x7a, 0x89, 0xbd,
  0xb7, 0x98, 0x6d, 0x3c, 0x76, 0x02, 0xa9, 0x3d, 0xaa, 0x9c, 0x15, 0xbd,
  0x40, 0x34, 0x09, 0x3e, 0x5f, 0x44, 0x00, 0xbe, 0x2c, 0xe8, 0x0b, 0xbe,
  0xd3, 0xcd, 0x23, 0xbe, 0xa5, 0xe3, 0x02, 0xbe, 0xc5, 0xde, 0xe3, 0x3c,
  0xce, 0x17, 0x99, 0x3d, 0x6d, 0x23, 0x4f, 0xbc, 0x2b, 0xd2, 0xc1, 0x3c,
  0x0a, 0x0e, 0xbd, 0xbd, 0xc3, 0x3a, 0x94, 0x3d, 0xa7, 0xdf, 0x10, 0xbe,
  0x37, 0x71, 0x24, 0xbe, 0x06, 0xc6, 0x0c, 0x3e, 0x22, 0x2d, 0xe6, 0x3d,
  0xe6, 0xa0, 0xab, 0xbd, 0x55, 0xbe, 0x86, 0x3b, 0x5a, 0xdd, 0xea, 0xbd,
  0xc1, 0x71, 0xef, 0xbd, 0xcb, 0x49, 0x7f, 0xbb, 0xd1, 0x33, 0x15, 0xbd,
  0x2b, 0x14, 0xf1, 0x3d, 0x93, 0x45, 0xb4, 0x3d, 0x87, 0x07, 0x0e, 0x3e,
  0x7a, 0x57, 0x7b, 0xbd, 0xe5, 0x63, 0x37, 0x3d, 0xa7, 0x07, 0x73, 0x3d,
  0x33, 0x1f, 0x85, 0x3d, 0x51, 0xb7, 0x41, 0x3b, 0x27, 0x59, 0x6a, 0x3d,
  0xe1, 0xd0, 0xf3, 0xbd, 0x1a, 0xc2, 0x29, 0xbc, 0xe5, 0xce, 0x1d, 0xbe,
  0xdb, 0x61, 0x06, 0x3d, 0x3c, 0xe1, 0x09, 0x3d, 0x1b, 0xee, 0x9d, 0x3d,
  0x39, 0x61, 0x8b, 0x3d, 0x7e, 0x06, 0x98, 0xbd, 0xdd, 0xcb, 0xb3, 0xbd,
  0x28, 0xc6, 0x0f, 0x3e, 0x75, 0x99, 0x22, 0xbd, 0x40, 0x39, 0xbf, 0x3b,
  0x85, 0xa5, 0x0d, 0xbe, 0xbd, 0x1e, 0x1a, 0xbc, 0xf1, 0xbb, 0x5c, 0x3d,
  0x96, 0xb8, 0xbe, 0xbd, 0x48, 0x5f, 0xad, 0x3b, 0xd8, 0xe8, 0x13, 0xbe,
  0xcc, 0xf2, 0x95, 0x3d, 0x4e, 0xa7, 0x83, 0x3d, 0x80, 0x33, 0x8c, 0xbd,
  0x26, 0x77, 0x2f, 0x3a, 0xe1, 0xbe, 0x0a, 0x3e, 0x83, 0x1a, 0xfe, 0xbd,
  0xd5, 0xb2, 0x99, 0x3d, 0x79, 0x92, 0x32, 0x3e, 0x60, 0x4b, 0x2c, 0x3e,
  0xf2, 0x18, 0x17, 0xbe, 0xa0, 0x58, 0xf6, 0x3d, 0x5e, 0x0f, 0x4a, 0xbd,
  0x4f, 0xfb, 0xd6, 0xbd, 0xf9, 0x30, 0xae, 0x3c, 0x66, 0xd8, 0xb9, 0xbd,
  0xed, 0xfb, 0x95, 0x3d, 0x6d, 0x91, 0xd4, 0xbd, 0x76, 0xf9, 0x8c, 0xbd,
  0x8a, 0x12, 0xba, 0x3b, 0xa3, 0x78, 0x24, 0xbe, 0x5d, 0x7c, 0xfd, 0xbd,
  0x91, 0xce, 0x8b, 0x3d, 0x6f, 0x41, 0xd5, 0x3b, 0xf1, 0x0a, 0x21, 0x3d,
  0x47, 0x0f, 0x1c, 0xbe, 0xa1, 0x85, 0xf1, 0xbc, 0x59, 0xf3, 0xc4, 0xbd,
  0x87, 0x49, 0xd0, 0x3c, 0xbc, 0x78, 0x43, 0xbd, 0x15, 0x24, 0xfb, 0xbc,
  0xca, 0xfd, 0x00, 0xbe, 0xff, 0x7e, 0x0b, 0xbd, 0xa2, 0xfa, 0xba, 0x3d,
  0x92, 0x93, 0x07, 0xbe, 0x53, 0x29, 0xd9, 0xbd, 0x18, 0xc0, 0xef, 0xbc,
  0xe4, 0x5d, 0x18, 0x3e, 0x43, 0x43, 0x20, 0xbe, 0x57, 0x80, 0x01, 0x3e,
  0xc1, 0xd8, 0xca, 0xbc, 0xb0, 0xc5, 0xa4, 0xbd, 0xe4, 0x18, 0x1a, 0x3d,
  0x4e, 0x39, 0x86, 0xbd, 0xe9, 0xfc, 0x1d, 0x3e, 0x1a, 0xfa, 0xeb, 0x3c,
  0x17, 0x6e, 0xa1, 0xbd, 0xdd, 0x49, 0x91, 0xbc, 0x32, 0xd1, 0xbb, 0xbd,
  0x7d, 0xc0, 0xe1, 0xbd, 0x08, 0xfc, 0x0a, 0x3e, 0xe8, 0x24, 0x1a, 0xbe,
  0xf8, 0xce, 0xa0, 0x3d, 0xa1, 0x06, 0xd5, 0xbd, 0x5b, 0x09, 0x88, 0x3d,
  0xc7, 0x5f, 0x48, 0x3d, 0xa8, 0x93, 0x81, 0xbc, 0xe0, 0xb2, 0x94, 0xbd,
  0x93, 0x2d, 0xce, 0xbd, 0x91, 0x4c, 0x0b, 0x3e, 0x0a, 0xc4, 0xe0, 0xbc,
  0x13, 0xec, 0x95, 0x3b, 0x60, 0xf0, 0x4e, 0xbb, 0xb6, 0x7f, 0xf4, 0xbc,
  0x87, 0x88, 0xd8, 0x3c, 0x14, 0x80, 0x00, 0x3e, 0x86, 0x94, 0x05, 0xbd,
  0x48, 0xc6, 0x36, 0x3e, 0x90, 0xa9, 0x0f, 0xbe, 0xbe, 0x52, 0x27, 0x3e,
  0x34, 0xe5, 0xd2, 0x3b, 0x5c, 0xae, 0x2c, 0x3d, 0x11, 0x2d, 0xdc, 0xbd,
  0x7a, 0xac, 0xed, 0x3d, 0xe7, 0xfe, 0xc4, 0x3d, 0x54, 0xf7, 0xec, 0x3d,
  0xc3, 0x65, 0x25, 0x3d, 0x47, 0xf6, 0x44, 0x3d, 0x32, 0x42, 0x05, 0x3e,
  0x43, 0xb1, 0x91, 0x3d, 0x9e, 0xca, 0x1c, 0xbe, 0x6f, 0xb1, 0x0e, 0xbe,
  0xeb, 0xc6, 0x85, 0x3d, 0x37, 0xf8, 0xb2, 0x3d, 0x9b, 0xe6, 0xec, 0xbd,
  0x99, 0xca, 0xb3, 0xbd, 0xa7, 0xd0, 0xf2, 0x3b, 0xaa, 0xad, 0xbf, 0x3d,
  0x1f, 0x2e, 0x29, 0x3e, 0xa4, 0x5a, 0x0a, 0x3e, 0x32, 0xa7, 0xae, 0x3d,
  0xac, 0xad, 0x69, 0xbd, 0xd0, 0xf7, 0x30, 0x3e, 0x35, 0x4f, 0x41, 0xbd,
  0x85, 0x99, 0xb6, 0x3d, 0x64, 0x29, 0xe8, 0xbd, 0xb5, 0x52, 0x28, 0xbd,
  0x2e, 0x81, 0xed, 0xbd, 0xfb, 0x1b, 0xf6, 0xbc, 0x27, 0x40, 0x52, 0x3d,
  0x2f, 0xd2, 0x94, 0xbd, 0x56, 0x3f, 0xea, 0xbd, 0xa3, 0x44, 0x86, 0x3d,
  0xab, 0xa2, 0x08, 0x3e, 0x78, 0x02, 0x25, 0x3e, 0x5b, 0x0c, 0x56, 0xbc,
  0xc4, 0xcd, 0xce, 0x3d, 0xc0, 0x12, 0xe0, 0xbd, 0x21, 0xba, 0xb0, 0x3d,
  0x72, 0x63, 0x45, 0xbd, 0xf0, 0x00, 0x5a, 0x3d, 0x24, 0x39, 0x1c, 0xbe,
  0x0e, 0x6b, 0x68, 0xbd, 0x2e, 0x2b, 0x27, 0x3e, 0x8e, 0xdb, 0x7e, 0x3d,
  0x02, 0x86, 0x00, 0x3e, 0x2e, 0xef, 0xf0, 0xbb, 0x8d, 0x03, 0xbd, 0x3d,
  0x8c, 0x24, 0xd1, 0xbc, 0xb1, 0xe2, 0xeb, 0xbd, 0x8e, 0x66, 0x4a, 0x3d,
  0x27, 0xf0, 0xce, 0x3d, 0x71, 0x8b, 0x14, 0xbd, 0x15, 0x15, 0xca, 0x3d,
  0x1b, 0x03, 0x16, 0x3e, 0x85, 0x00, 0xc6, 0xbd, 0x91, 0x03, 0x22, 0x3e,
  0x50, 0xb1, 0x9b, 0xbc, 0xdb, 0x09, 0xe5, 0xbd, 0x87, 0x57, 0x36, 0x3b,
  0xd1, 0xcb, 0x82, 0x3d, 0x4f, 0x50, 0x0f, 0x3d, 0xdc, 0x99, 0x83, 0xbd,
  0x6a, 0x47, 0x29, 0x3e, 0x92, 0xda, 0x19, 0x3d, 0xa5, 0x9e, 0x04, 0x3e,
  0xcd, 0xb7, 0xd6, 0xbd, 0x8b, 0x6c, 0xe0, 0xbd, 0xa4, 0x3e, 0x03, 0xbe,
  0xa9, 0x4a, 0x31, 0x3e, 0x8b, 0xc5, 0x07, 0x3e, 0x37, 0x00, 0xc5, 0x3d,
  0xca, 0x0c, 0x20, 0x3e, 0xcc, 0xd0, 0x04, 0xbe, 0xf4, 0x36, 0x79, 0xbd,
  0x2d, 0x22, 0x2e, 0xbd, 0x32, 0xca, 0x03, 0xbe, 0x9d, 0xc6, 0xf2, 0xbd,
  0xdd, 0x18, 0xbd, 0xbc, 0xbf, 0x45, 0x9e, 0x3d, 0x8b, 0x92, 0x8b, 0xbc,
  0xc7, 0x18, 0x94, 0x3c, 0xd4, 0x9f, 0xa4, 0x3d, 0x35, 0x5e, 0xc8, 0x3d,
  0xeb, 0x14, 0x5a, 0xbc, 0x43, 0x42, 0x5f, 0xbd, 0x1e, 0xa9, 0x53, 0xbd,
  0x7a, 0xb7, 0x85, 0x3c, 0xa5, 0x04, 0xce, 0x3d, 0xfb, 0x69, 0xb5, 0xbc,
  0x11, 0xef, 0x40, 0xbd, 0x77, 0x14, 0xf6, 0x3c, 0x38, 0xa7, 0xaa, 0xbc,
  0x18, 0x35, 0x1b, 0x3e, 0x02, 0xfc, 0x10, 0xbe, 0x51, 0x3d, 0x19, 0xbe,
  0x98, 0x40, 0x5f, 0xbd, 0x2c, 0x16, 0xb6, 0xbd, 0x08, 0xc9, 0x30, 0x3d,
  0xbc, 0xfd, 0x03, 0x3e, 0x74, 0xb0, 0x1c, 0xbe, 0x80, 0x9c, 0xca, 0xbd,
  0x0e, 0x79, 0x10, 0xbd, 0x9e, 0x66, 0xe0, 0xbd, 0xa6, 0x97, 0x90, 0xbc,
  0x70, 0x99, 0x13, 0x3d, 0x7e, 0xdd, 0x2e, 0xbe, 0xfb, 0x8e, 0x2e, 0xbe,
  0x88, 0x12, 0x6d, 0x3d, 0xb0, 0x5d, 0x9d, 0x3c, 0xe1, 0xd6, 0x39, 0x3d,
  0x10, 0x7d, 0x11, 0x3e, 0xb3, 0x7e, 0xac, 0xbd, 0x1c, 0x08, 0xb7, 0x3d,
  0x43, 0xf3, 0xe9, 0x3d, 0x56, 0x48, 0x10, 0xbe, 0xf0, 0x93, 0xec, 0xbd,
  0xe7, 0x41, 0x4c, 0x3d, 0x5a, 0xc8, 0x9f, 0x3d, 0x60, 0xf2, 0x43, 0xbd,
  0x90, 0xe0, 0xa0, 0xbc, 0xec, 0xc7, 0x0c, 0x3e, 0x7c, 0x54, 0xe3, 0x3d,
  0x21, 0x13, 0x12, 0xbe, 0xf3, 0x4d, 0xe8, 0x3c, 0x07, 0xf9, 0x2f, 0xbe,
  0x1b, 0x8e, 0x45, 0xbd, 0x82, 0xf2, 0xc2, 0x3b, 0x6b, 0x85, 0x39, 0x3b,
  0x5e, 0xd2, 0x1b, 0xbe, 0xc0, 0x1e, 0x0d, 0xbd, 0x97, 0x45, 0xf6, 0xbd,
  0xf3, 0x2e, 0x85, 0x3d, 0xcc, 0xac, 0x5d, 0x3d, 0xf4, 0xcb, 0x5e, 0x3d,
  0x9e, 0x57, 0xce, 0xbd, 0x59, 0xc8, 0x37, 0x3d, 0x7a, 0x3e, 0x36, 0x3d,
  0xff, 0x0d, 0x26, 0x3e, 0xd5, 0xb8, 0x86, 0x3c, 0x5f, 0x16, 0x08, 0xbe,
  0x7c, 0x90, 0xce, 0x3c, 0x5b, 0xf2, 0xaa, 0x3d, 0x6b, 0xb2, 0x9d, 0x3c,
  0x2d, 0xea, 0x86, 0xbd, 0xc0, 0x57, 0xe0, 0xbc, 0x7d, 0x1c, 0x95, 0xbc,
  0x0c, 0xd5, 0x34, 0x3e, 0x13, 0xe2, 0xe6, 0x3d, 0xa2, 0xda, 0x1e, 0xbe,
  0xef, 0x1f, 0xde, 0xbd, 0x38, 0x56, 0x36, 0x3e, 0x7a, 0x91, 0xe5, 0xbb,
  0x6f, 0xab, 0xac, 0xbb, 0x8e, 0x03, 0x34, 0x3e, 0x51, 0x79, 0xf1, 0x3c,
  0xb9, 0xc4, 0x26, 0xbd, 0x7d, 0xea, 0x14, 0x3e, 0x81, 0x3c, 0x42, 0x3d,
  0x30, 0x82, 0xd1, 0x3a, 0xcc, 0x4b, 0x0c, 0x3e, 0x2e, 0x7a, 0x27, 0x3c,
  0xde, 0x3b, 0xf9, 0xbd, 0xb3, 0xca, 0xa3, 0xbc, 0x8a, 0x0f, 0x16, 0x3e,
  0xf3, 0x54, 0x66, 0x3d, 0x88, 0x07, 0xa6, 0xbc, 0x2c, 0xf8, 0xe3, 0xbd,
  0xdc, 0x89, 0x89, 0x3c, 0x33, 0x6e, 0xbe, 0x3b, 0x01, 0x97, 0xd5, 0xbc,
  0xfe, 0x3c, 0xb0, 0xbc, 0x27, 0xd9, 0xe5, 0x3d, 0x4c, 0xfb, 0xe0, 0xbd,
  0xc9, 0x1b, 0xbd, 0xbd, 0x41, 0x21, 0x0e, 0x3e, 0x24, 0x71, 0xe5, 0xbd,
  0xd7, 0x77, 0xd6, 0x3d, 0xc1, 0xc2, 0xc5, 0x3d, 0x5c, 0x12, 0x1c, 0x3e,
  0x5c, 0xa3, 0xa3, 0xbd, 0x46, 0x71, 0x46, 0xbd, 0x5a, 0x02, 0x31, 0x3e,
  0x67, 0xc6, 0x10, 0xbe, 0x00, 0xd9, 0xae, 0xbd, 0x85, 0x32, 0xdb, 0x3d,
  0x5e, 0x18, 0x2c, 0xbb, 0xdf, 0x97, 0xd3, 0x3d, 0xeb, 0xf8, 0xe6, 0xbd,
  0xf0, 0x2a, 0x10, 0xbe, 0x33, 0x67, 0x96, 0xbd, 0x91, 0x12, 0x94, 0xbc,
  0x0b, 0xce, 0xfd, 0x3d, 0xa3, 0x0f, 0xa6, 0xbd, 0x55, 0x4a, 0x87, 0x3d,
  0x52, 0x2d, 0x75, 0xbd, 0x61, 0xc9, 0x35, 0xbe, 0x2c, 0x65, 0x20, 0xbe,
  0x03, 0x33, 0xa5, 0x3d, 0xa9, 0x12, 0xca, 0x3d, 0xbf, 0x81, 0x2d, 0xbd,
  0x08, 0xe3, 0x64, 0x3c, 0x9c, 0xd7, 0xb6, 0xbd, 0x0e, 0xa3, 0x15, 0x3d,
  0xd5, 0x6b, 0x08, 0xbe, 0xe9, 0xa4, 0x0c, 0xbe, 0x9f, 0x01, 0x8f, 0x3d,
  0xea, 0xae, 0x85, 0xbd, 0x5a, 0xe7, 0xee, 0x3d, 0x01, 0xb0, 0xf1, 0x3d,
  0x79, 0xe3, 0xa5, 0xbd, 0xf8, 0x63, 0xa6, 0xbd, 0xe1, 0xac, 0x15, 0x3d,
  0xe0, 0xaa, 0xa8, 0x3d, 0xdc, 0x96, 0xb2, 0x3d, 0x1c, 0xca, 0x08, 0x3e,
  0xf0, 0x43, 0x8e, 0xbd, 0xd5, 0x5a, 0x27, 0x3e, 0x60, 0x83, 0x0d, 0xbd,
  0xb0, 0x31, 0x01, 0x3c, 0xcb, 0xfb, 0xcb, 0xbd, 0xce, 0xe5, 0x50, 0xbd,
  0x8a, 0xd9, 0xdb, 0x3d, 0x20, 0x98, 0xc2, 0x3d, 0x18, 0x16, 0x0d, 0xbe,
  0x2b, 0xda, 0xe4, 0xbd, 0xc0, 0xd6, 0x55, 0xbd, 0x0e, 0xc5, 0xe9, 0x3d,
  0x86, 0xb1, 0x97, 0x39, 0x94, 0xe4, 0xa2, 0xbc, 0xcb, 0xb5, 0xb4, 0xbd,
  0xc1, 0x86, 0x0d, 0xbe, 0xb7, 0x1c, 0x96, 0x3d, 0x7f, 0xde, 0x06, 0x3d,
  0x27, 0x93, 0x84, 0x3d, 0x54, 0x3d, 0xf1, 0x3b, 0x94, 0x45, 0xc2, 0xbd,
  0x53, 0x4d, 0xa8, 0x3d, 0x14, 0x9e, 0x03, 0xbe, 0xf5, 0xb1, 0xb4, 0x3d,
  0x9e, 0x1f, 0xd1, 0xbd, 0x5a, 0x0e, 0x6c, 0xbd, 0x6c, 0x26, 0x59, 0xbc,
  0x97, 0x4b, 0x66, 0x3d, 0xe5, 0x60, 0x07, 0x3e, 0x81, 0x1a, 0x1b, 0x3b,
  0x70, 0xfd, 0x4c, 0x3d, 0x3d, 0x23, 0x41, 0x3d, 0xcd, 0x3e, 0xc3, 0x3c,
  0x16, 0x84, 0x90, 0x3d, 0xe0, 0xe6, 0x29, 0xbe, 0xe2, 0x4c, 0x2b, 0x3e,
  0x0e, 0x69, 0x99, 0xbd, 0x97, 0x6a, 0xa5, 0xbc, 0xc3, 0xf5, 0xd0, 0xbd,
  0xfb, 0xa7, 0xc1, 0xbd, 0x07, 0x60, 0x21, 0x3e, 0x58, 0x86, 0x14, 0xbe,
  0x55, 0x5e, 0xb7, 0xbd, 0x61, 0x42, 0xc3, 0xbd, 0x66, 0x2b, 0x8c, 0xbd,
  0xa2, 0xd9, 0x1b, 0x3e, 0x45, 0xe2, 0x96, 0x3d, 0x77, 0x8f, 0xd9, 0xbd,
  0xe8, 0xe2, 0x3f, 0xbd, 0x89, 0xf5, 0x18, 0x3e, 0xef, 0x72, 0x27, 0x3d,
  0x29, 0xcf, 0x1b, 0xbe, 0x8e, 0xef, 0xd0, 0x3d, 0x64, 0xec, 0x31, 0x3d,
  0xba, 0xe9, 0x2b, 0x3e, 0xe7, 0xd0, 0x1f, 0x3d, 0xa3, 0xb0, 0x30, 0xbd,
  0x81, 0xd9, 0x91, 0xbd, 0x15, 0xc3, 0x0e, 0x3e, 0xfa, 0xa3, 0xde, 0x3d,
  0x92, 0xc1, 0xe0, 0xbc, 0x32, 0x07, 0x1b, 0x3e, 0xf2, 0x8b, 0x21, 0x3d,
  0xfe, 0xa8, 0xfc, 0x3d, 0x18, 0xe5, 0xb0, 0x3d, 0xca, 0x51, 0x80, 0x3d,
  0x37, 0xbf, 0x27, 0xbd, 0x81, 0x63, 0x30, 0x3e, 0xea, 0x72, 0xbd, 0xbc,
  0x47, 0x0e, 0x9c, 0xbc, 0x4c, 0x69, 0x05, 0xbe, 0x43, 0x78, 0xbb, 0xbd,
  0xeb, 0x95, 0x0e, 0xbe, 0xd9, 0x07, 0x4d, 0x3c, 0x20, 0xc0, 0xfd, 0x3d,
  0x47, 0xbf, 0xf3, 0xbd, 0xad, 0x60, 0xd6, 0x3d, 0x70, 0x41, 0x27, 0x3e,
  0x3a, 0x1b, 0x25, 0xbd, 0xc6, 0x03, 0x1e, 0x3d, 0x83, 0xbd, 0x5e, 0x3c,
  0xd2, 0x8a, 0x24, 0x3e, 0x3b, 0x38, 0xce, 0x3d, 0xc0, 0x6e, 0xde, 0xbd,
  0x35, 0x96, 0x24, 0x3e, 0xa8, 0xb3, 0x08, 0xbe, 0xea, 0x75, 0x41, 0x3e,
  0xa5, 0x07, 0x12, 0x3e, 0xd4, 0x93, 0xa9, 0x3d, 0x31, 0x6f, 0xda, 0xbd,
  0x25, 0x66, 0xcc, 0x3d, 0xb2, 0x2d, 0x27, 0x3e, 0xcf, 0xd4, 0x0d, 0xbc,
  0x59, 0xf7, 0xc0, 0x3b, 0xe2, 0x15, 0xd3, 0x3d, 0x9c, 0xba, 0xbe, 0xbd,
  0x2c, 0x0e, 0xd8, 0x3d, 0x3e, 0x35, 0x6e, 0x3d, 0x88, 0xa0, 0x1e, 0x3e,
  0x6c, 0x85, 0xf8, 0xbd, 0x58, 0x2e, 0x69, 0xbd, 0xf5, 0x04, 0x2d, 0x3d,
  0xfc, 0x65, 0x6c, 0x3d, 0x30, 0x56, 0x84, 0x3d, 0x57, 0x1c, 0x81, 0x3c,
  0xa7, 0x5c, 0x38, 0xbc, 0x84, 0xa2, 0x0d, 0xbd, 0x4d, 0xf7, 0x11, 0xbe,
  0xc9, 0xe9, 0x18, 0x3b, 0x53, 0xad, 0x97, 0xbd, 0x63, 0xe4, 0x86, 0xbd,
  0xff, 0x03, 0x30, 0x3d, 0x95, 0x7d, 0x15, 0x3d, 0x7f, 0xa0, 0x19, 0x3d,
  0x45, 0x15, 0x93, 0xbd, 0x68, 0x6e, 0x7f, 0xbd, 0xd5, 0xd6, 0x35, 0x3d,
  0xc9, 0xca, 0x15, 0xbc, 0xc2, 0x68, 0x8b, 0xbd, 0xb1, 0x21, 0x22, 0x3e,
  0xea, 0x53, 0x98, 0x3d, 0xbb, 0x2d, 0x28, 0x3e, 0x3f, 0x6a, 0x08, 0x3c,
  0xe2, 0x08, 0x3c, 0x3c, 0x7b, 0xf5, 0xb0, 0xbd, 0x90, 0x35, 0xaf, 0xbd,
  0xae, 0x58, 0xd6, 0x3d, 0x89, 0x38, 0x9e, 0xbd, 0x07, 0xcb, 0x60, 0xbd,
  0x81, 0x03, 0xd0, 0x3d, 0x38, 0x6b, 0xc1, 0x3d, 0xe6, 0xf9, 0xec, 0xbd,
  0x95, 0x76, 0xa9, 0xbd, 0x01, 0x9b, 0x8c, 0x3d, 0x56, 0x30, 0x0c, 0xbe,
  0xe7, 0x1d, 0xd2, 0xbd, 0xd7, 0xb9, 0x12, 0xbd, 0xb8, 0x1c, 0x19, 0xbe,
  0x20, 0xa2, 0xd3, 0xbb, 0x21, 0xa3, 0x15, 0x3e, 0xcb, 0x6e, 0x0e, 0x3e,
  0x9b, 0x2a, 0xc7, 0x3d, 0x58, 0xa9, 0x45, 0x3d, 0x43, 0x87, 0x9e, 0x3d,
  0xb4, 0xc5, 0x14, 0xbe, 0x62, 0x2a, 0x2e, 0x3d, 0x99, 0x64, 0xab, 0xbd,
  0xf4, 0xe8, 0xe6, 0x3d, 0xa4, 0x38, 0xfd, 0xbc, 0x5e, 0x2b, 0xe5, 0x3d,
  0x4f, 0x80, 0x0b, 0xbe, 0x60, 0x79, 0x8b, 0x3d, 0xe9, 0x6b, 0x51, 0x3d,
  0x54, 0x12, 0xe6, 0xbd, 0xcd, 0x4c, 0x3c, 0x3d, 0xdb, 0x0b, 0x3e, 0xbd,
  0xa9, 0x27, 0xc6, 0xbd, 0x07, 0xe0, 0x2e, 0x3e, 0x8a, 0xb8, 0xba, 0xba,
  0xd9, 0x3e, 0xc3, 0x3c, 0xad, 0x95, 0xeb, 0xbd, 0x75, 0xf7, 0x00, 0xbd,
  0xaf, 0x7c, 0x1f, 0xbe, 0x1d, 0x90, 0x6d, 0xbd, 0xae, 0x73, 0x05, 0xbb,
  0xb4, 0x7d, 0x90, 0xbc, 0xaa, 0xb5, 0x2d, 0x3d, 0xe9, 0x46, 0x3f, 0x3d,
  0x2f, 0xd5, 0x64, 0x3d, 0x56, 0x5c, 0x72, 0x3d, 0xfe, 0xc9, 0x2f, 0x3d,
  0x42, 0x03, 0x9c, 0xbb, 0xe1, 0xc3, 0x2c, 0x3e, 0x4f, 0x19, 0xf6, 0xbc,
  0x3b, 0x1a, 0xb7, 0x3d, 0x3f, 0x10, 0xd9, 0x3d, 0x60, 0x0e, 0xbf, 0xbd,
  0xb7, 0x8c, 0xcc, 0x3d, 0x86, 0x73, 0x15, 0xbc, 0x91, 0xb0, 0xcd, 0xbc,
  0xbd, 0x89, 0x8c, 0xbd, 0xa9, 0xc8, 0xeb, 0xbd, 0xd3, 0x44, 0x20, 0x3e,
  0x7e, 0x38, 0xe9, 0xbd, 0xb4, 0xbc, 0xa0, 0x3d, 0xd7, 0x88, 0x92, 0x3d,
  0x19, 0x98, 0x8f, 0xbd, 0x64, 0xe1, 0x1c, 0x3e, 0x08, 0x25, 0x73, 0x3b,
  0x80, 0xeb, 0xc1, 0xbd, 0x79, 0x1b, 0xa0, 0x3d, 0x95, 0x76, 0x36, 0x3e,
  0x06, 0xe0, 0x91, 0x3c, 0x3e, 0x92, 0xab, 0xbd, 0x56, 0xd5, 0x95, 0xbc,
  0x18, 0xbd, 0xde, 0xbd, 0xc9, 0x13, 0x28, 0x3e, 0x51, 0xf7, 0x6d, 0xbd,
  0x55, 0xbd, 0x36, 0x3d, 0xaf, 0xff, 0xf7, 0xbd, 0x7a, 0xa3, 0x37, 0xbd,
  0x8e, 0xd0, 0x3d, 0xbd, 0xeb, 0xcf, 0xd0, 0x3d, 0x61, 0x39, 0xa6, 0x3d,
  0x62, 0x54, 0xee, 0x3d, 0x3d, 0x82, 0xaf, 0xbd, 0x5c, 0x57, 0x1f, 0x3e,
  0xc8, 0xf0, 0x8a, 0xbd, 0xab, 0x12, 0x2f, 0x3d, 0x74, 0xf1, 0xdb, 0x3d,
  0x08, 0x4a, 0x26, 0x3e, 0x0a, 0xd3, 0x0b, 0xbe, 0x06, 0x4c, 0x11, 0x3e,
  0xb1, 0x22, 0xc7, 0xbd, 0x5a, 0xad, 0x85, 0xbc, 0xbc, 0xf5, 0x14, 0xbe,
  0xce, 0x0a, 0x94, 0xbc, 0x4c, 0xa5, 0x1d, 0x3e, 0xe0, 0xa1, 0x1f, 0x3e,
  0x99, 0x23, 0x28, 0x3e, 0xd0, 0x0c, 0x11, 0xbe, 0x98, 0xb6, 0xe7, 0xba,
  0x62, 0x12, 0x70, 0x3d, 0x77, 0x9d, 0xca, 0xbd, 0xcb, 0x2b, 0x40, 0x3d,
  0xa1, 0x4e, 0xd0, 0x3c, 0x69, 0x4c, 0xa0, 0x3d, 0xc2, 0x16, 0xd0, 0x3d,
  0xd4, 0x17, 0xf9, 0xbd, 0x0c, 0x72, 0xe1, 0xbd, 0xee, 0xf9, 0x25, 0xbe,
  0xa6, 0x61, 0x23, 0x3e, 0x5f, 0x31, 0x2f, 0x3d, 0xe6, 0xb9, 0x0f, 0x3d,
  0x1c, 0x11, 0x21, 0x3e, 0xcd, 0xe7, 0x20, 0x3d, 0x10, 0xad, 0x2d, 0x3e,
  0x18, 0xc3, 0x54, 0xbd, 0x8c, 0x64, 0x3b, 0x3d, 0xa7, 0x9b, 0x45, 0xbd,
  0x9e, 0xae, 0xf9, 0x3d, 0xb9, 0x5c, 0x13, 0x3e, 0xd5, 0xbc, 0xc3, 0xbd,
  0xf5, 0x4b, 0xa8, 0xbd, 0x7a, 0xf7, 0x16, 0x3d, 0xf9, 0xf3, 0x07, 0x3d,
  0x30, 0xeb, 0x1e, 0xbd, 0x5f, 0x31, 0xe6, 0x3d, 0x3e, 0xff, 0xa9, 0xbd,
  0xa1, 0xef, 0x14, 0xbd, 0x5a, 0xd4, 0x2c, 0xbe, 0xc2, 0x21, 0x37, 0xbd,
  0x3e, 0x42, 0xf2, 0xbb, 0x0d, 0x54, 0x04, 0xbd, 0x93, 0x65, 0x10, 0x3e,
  0xfe, 0x2c, 0x45, 0xbd, 0x68, 0xfe, 0x06, 0xbe, 0xdb, 0x29, 0x55, 0xbd,
  0x47, 0xa6, 0x21, 0x3d, 0xc9, 0xed, 0xfa, 0x3d, 0x7c, 0xb5, 0xc4, 0x3d,
  0x29, 0xf4, 0x90, 0x3d, 0x36, 0xe5, 0xfd, 0xbd, 0x1e, 0xe2, 0x32, 0x3e,
  0xc6, 0xc3, 0x27, 0x3e, 0x39, 0x78, 0x5e, 0x3d, 0xab, 0xdc, 0xa4, 0x3d,
  0x93, 0x52, 0x6e, 0x3d, 0x9c, 0xe6, 0x2e, 0x3e, 0xc3, 0x1e, 0x07, 0x3e,
  0x3e, 0x15, 0x11, 0xbe, 0xd8, 0x97, 0x00, 0x3d, 0xcf, 0xe2, 0x0f, 0xbe,
  0xd2, 0xdf, 0xa6, 0x3d, 0xa7, 0x02, 0xd6, 0xbd, 0x14, 0x41, 0x2d, 0xbd,
  0x8d, 0xc4, 0xd4, 0xbc, 0xe9, 0x68, 0x3b, 0xbc, 0x76, 0xd7, 0x7a, 0x3d,
  0xde, 0x71, 0x00, 0x3d, 0x66, 0x14, 0x42, 0x3d, 0x3c, 0xaa, 0x5b, 0xbc,
  0x82, 0x22, 0x18, 0xbe, 0x9e, 0x55, 0xbe, 0xbd, 0x20, 0xcb, 0xec, 0xbd,
  0x81, 0x65, 0x20, 0x3e, 0xde, 0xb2, 0xaf, 0xbd, 0x32, 0x3b, 0xfa, 0x3d,
  0x12, 0x25, 0xad, 0x3c, 0xcc, 0xd3, 0xc8, 0xbd, 0x79, 0xe4, 0x50, 0x3d,
  0x1f, 0x11, 0xe4, 0x3d, 0x01, 0xaf, 0x0d, 0x3e, 0x43, 0x5c, 0xc0, 0xbd,
  0x54, 0xd0, 0x22, 0xbe, 0xda, 0x3c, 0x1e, 0xbd, 0x75, 0xf9, 0x75, 0xbd,
  0x00, 0x4b, 0x01, 0xbe, 0x88, 0x07, 0x8c, 0x3d, 0x0d, 0xed, 0x9a, 0x3c,
  0x0d, 0x38, 0x98, 0xbd, 0x9f, 0x66, 0xae, 0x3d, 0x81, 0x7b, 0x3d, 0x3d,
  0xf6, 0x57, 0x9e, 0x3d, 0x06, 0x74, 0x1e, 0x3e, 0xfe, 0xdd, 0x09, 0x3c,
  0xbd, 0x9f, 0x13, 0x3e, 0x40, 0xaa, 0x73, 0xbd, 0xe0, 0x6b, 0xc6, 0x3d,
  0x20, 0x4b, 0xba, 0xbc, 0x3b, 0x97, 0x1f, 0x3d, 0x9e, 0xbd, 0x20, 0x3e,
  0x32, 0x42, 0xca, 0xbd, 0xf3, 0xf6, 0x41, 0xbb, 0x37, 0xeb, 0x28, 0x3d,
  0x94, 0x93, 0x0b, 0x3e, 0x5c, 0x52, 0xa9, 0x3d, 0x31, 0x36, 0x73, 0xbd,
  0x66, 0x70, 0xd4, 0x3d, 0xd2, 0xfe, 0x28, 0xbe, 0xaf, 0xdf, 0xbf, 0x3d,
  0x02, 0x93, 0x0a, 0xbd, 0xd9, 0x87, 0x36, 0xbc, 0x97, 0xe9, 0x01, 0xbd,
  0x5f, 0xa7, 0x6e, 0xbb, 0x67, 0x09, 0x87, 0xbd, 0x6c, 0x8a, 0xad, 0xbd,
  0x97, 0xcc, 0x06, 0xbd, 0x66, 0x7a, 0xc7, 0x3d, 0x24, 0x65, 0x0f, 0x3d,
  0xce, 0x0c, 0x7c, 0xbd, 0x9f, 0x34, 0xe4, 0x3d, 0x3d, 0xf6, 0x6c, 0x3c,
  0x54, 0x6c, 0x3b, 0xbd, 0xc3, 0x36, 0x33, 0xbc, 0x5e, 0xe0, 0x05, 0x3e,
  0x9e, 0x83, 0x8f, 0x3b, 0xb1, 0xb2, 0xe4, 0x3c, 0x1b, 0x85, 0x57, 0xbc,
  0x7c, 0x7e, 0xe7, 0x3d, 0x86, 0x45, 0x9a, 0x3d, 0x9c, 0x43, 0xe3, 0x3c,
  0x83, 0xb0, 0x0a, 0xbe, 0x5d, 0x56, 0x34, 0xbe, 0x18, 0x9c, 0xa8, 0xbd,
  0x1d, 0xae, 0xb8, 0xbd, 0xd0, 0x4d, 0x2a, 0xbe, 0x33, 0x68, 0xc2, 0xbd,
  0x44, 0x2f, 0x17, 0xbe, 0x99, 0xa4, 0x13, 0x3d, 0xa9, 0x95, 0x2d, 0x3e,
  0x11, 0x01, 0x4f, 0x3d, 0x0f, 0xb8, 0x85, 0x3d, 0x51, 0x6c, 0x26, 0xbe,
  0x88, 0x40, 0x0d, 0x3d, 0x06, 0xd5, 0x1e, 0x3d, 0xc4, 0x80, 0xa7, 0xbb,
  0x99, 0xbd, 0x31, 0x3e, 0xe7, 0xe9, 0x2a, 0x3e, 0x24, 0x14, 0x68, 0xbd,
  0x09, 0xa7, 0x17, 0x3d, 0x70, 0x0d, 0x08, 0xbe, 0x55, 0x93, 0x6c, 0xbd,
  0x2f, 0x1d, 0x49, 0x3d, 0x92, 0x0f, 0x18, 0x3d, 0x2b, 0xa9, 0x25, 0xbe,
  0x74, 0x83, 0x14, 0x3d, 0x3d, 0xbc, 0xf2, 0xbd, 0x62, 0x4d, 0x54, 0x3b,
  0x80, 0xbc, 0x83, 0x3d, 0x97, 0x0d, 0x17, 0x3e, 0x74, 0x0c, 0x06, 0xbe,
  0xd0, 0xb1, 0x8a, 0x3d, 0x0e, 0x71, 0x3a, 0xbc, 0x75, 0x92, 0xbe, 0xbc,
  0x37, 0xdf, 0x0c, 0x3d, 0x09, 0x34, 0xcd, 0x3d, 0xa2, 0x0e, 0xed, 0x3d,
  0x7e, 0xd6, 0xd9, 0xbd, 0x11, 0x0e, 0x97, 0xbc, 0x29, 0xa0, 0x06, 0xbe,
  0x85, 0x3d, 0x83, 0xbd, 0x46, 0x2f, 0x74, 0x3b, 0xb2, 0x08, 0x64, 0x3a,
  0x55, 0x74, 0x05, 0x3e, 0x6d, 0x8a, 0xdf, 0x3d, 0x3d, 0x20, 0xe7, 0xbc,
  0xf0, 0xf2, 0x6a, 0x3d, 0xcc, 0xa6, 0xdf, 0xbd, 0x9a, 0xe2, 0xe5, 0x3b,
  0xcd, 0xca, 0x9f, 0xbd, 0xb9, 0xe5, 0xb9, 0x3d, 0x6a, 0x68, 0x28, 0xbe,
  0x77, 0xfb, 0xf1, 0xbd, 0x02, 0xaa, 0x02, 0xbd, 0x75, 0x18, 0x28, 0x3d,
  0x1a, 0x1a, 0xdd, 0x3d, 0xcb, 0xbf, 0xa2, 0x3c, 0x6e, 0xf0, 0x9b, 0x3d,
  0x0c, 0x4e, 0xad, 0x3d, 0xfe, 0x55, 0xcf, 0xbd, 0x9b, 0x42, 0xbd, 0xbd,
  0xc5, 0x9a, 0x1d, 0x3e, 0x30, 0x22, 0x67, 0xbd, 0x69, 0xc5, 0xb0, 0x3d,
  0xee, 0x36, 0xc5, 0xbd, 0x7c, 0xd4, 0xd6, 0xbd, 0x8f, 0xc1, 0xff, 0x3d,
  0x9d, 0x59, 0x22, 0xbe, 0x00, 0x3f, 0x8b, 0xbd, 0xc9, 0xae, 0x0e, 0x3d,
  0x34, 0x3d, 0x08, 0xbc, 0x80, 0xaa, 0x38, 0x3d, 0x1e, 0x0b, 0xb1, 0xbc,
  0x31, 0x66, 0x82, 0xbc, 0x24, 0x84, 0xf9, 0xbd, 0xef, 0x0c, 0xeb, 0xbd,
  0xda, 0xb1, 0xef, 0x3d, 0x8f, 0x16, 0x1b, 0x3e, 0x20, 0x00, 0x69, 0xbd,
  0x75, 0x89, 0xd7, 0xbd, 0xc5, 0xc1, 0x2b, 0xbd, 0x08, 0x42, 0xbc, 0xbd,
  0x63, 0xd0, 0xdb, 0xbc, 0xb4, 0x53, 0xe3, 0x3d, 0xc2, 0x7c, 0x02, 0xbe,
  0xe7, 0xea, 0xf4, 0x3d, 0x60, 0x9e, 0x11, 0xbe, 0xfc, 0x6b, 0x15, 0xbe,
  0x69, 0x8c, 0xf5, 0x3c, 0xd7, 0x88, 0x0a, 0xbe, 0xb9, 0x7b, 0x65, 0xbd,
  0x6e, 0x9c, 0x1c, 0xbe, 0x68, 0xed, 0xba, 0x3c, 0x41, 0xe8, 0x80, 0x3d,
  0x7f, 0x77, 0x75, 0x3c, 0xc6, 0x42, 0x32, 0xbe, 0x20, 0x88, 0xd3, 0xbc,
  0x72, 0xec, 0x1c, 0x3e, 0x51, 0x41, 0x49, 0x3c, 0xf1, 0x13, 0x6f, 0x3d,
  0x24, 0x2b, 0x2e, 0xbe, 0x6a, 0xec, 0x16, 0xbe, 0x85, 0xbb, 0xe5, 0x3c,
  0x23, 0x4a, 0x03, 0x3e, 0x17, 0xe3, 0x1b, 0x3e, 0x6f, 0x5c, 0xbb, 0x3d,
  0x89, 0x62, 0x18, 0x3e, 0x2a, 0x1d, 0x11, 0x3e, 0xec, 0xf8, 0x10, 0x3e,
  0x54, 0x19, 0x55, 0xbd, 0xef, 0x49, 0x39, 0xbe, 0xde, 0x42, 0x17, 0x3e,
  0x23, 0xc0, 0xf7, 0xbd, 0x82, 0x57, 0x27, 0x3e, 0x9e, 0x91, 0x95, 0xbb,
  0x0e, 0x02, 0x8a, 0xbd, 0xfc, 0xe2, 0x7b, 0xbd, 0x6e, 0x90, 0x42, 0x3d,
  0xe9, 0xe8, 0x70, 0x3d, 0x82, 0x51, 0xed, 0xbc, 0x55, 0x6a, 0x8e, 0xbd,
  0xb6, 0xe6, 0xca, 0x3d, 0xc0, 0x74, 0x02, 0xbe, 0x3b, 0x2d, 0xe6, 0xbd,
  0x12, 0x2a, 0x31, 0xbe, 0xdb, 0x66, 0xf8, 0xbd, 0x9c, 0xf2, 0x11, 0x3e,
  0x43, 0x64, 0x4b, 0x3d, 0xb2, 0x42, 0xd3, 0xbc, 0x17, 0xce, 0xbb, 0x3d,
  0x02, 0x9f, 0x5a, 0x3d, 0x40, 0x4f, 0x45, 0xbd, 0x49, 0x52, 0x49, 0x3d,
  0x0e, 0xcd, 0xb1, 0xbc, 0xc9, 0xb6, 0x26, 0x3e, 0xca, 0x01, 0x02, 0xbe,
  0xb5, 0x6e, 0x55, 0x3d, 0x3d, 0xd2, 0x57, 0x3c, 0x8d, 0xc4, 0x96, 0xbd,
  0x83, 0x9c, 0x11, 0x3d, 0x02, 0xb8, 0x67, 0x3d, 0x71, 0x60, 0xf5, 0xbc,
  0x45, 0x72, 0x9f, 0x3d, 0xc4, 0x21, 0x29, 0xbd, 0x73, 0xe0, 0xdd, 0xbd,
  0xd8, 0xae, 0xba, 0xbb, 0x8a, 0xaf, 0x53, 0xbd, 0x92, 0x37, 0x80, 0xbd,
  0x04, 0x78, 0x3c, 0x3d, 0xf5, 0xa3, 0x04, 0x3e, 0xfd, 0x35, 0x05, 0x3d,
  0x6e, 0x31, 0x77, 0xbd, 0xd2, 0xbc, 0x02, 0x3e, 0x11, 0x22, 0x56, 0x3c,
  0xbd, 0xdd, 0x0f, 0xbe, 0x35, 0x33, 0xa8, 0xbd, 0x0a, 0x5e, 0x73, 0xbc,
  0xcd, 0x72, 0x93, 0x3a, 0x02, 0x0f, 0x08, 0x3e, 0xbe, 0x6b, 0x27, 0x3e,
  0x3b, 0xc9, 0xc3, 0x3d, 0x8a, 0x5e, 0x86, 0x3d, 0xc2, 0xf6, 0x86, 0x3d,
  0x64, 0xd9, 0xf0, 0x3c, 0x0e, 0xbd, 0x00, 0x3e, 0x23, 0xe5, 0x4e, 0xbd,
  0x32, 0x17, 0x1e, 0xbe, 0xb1, 0x5b, 0xbc, 0x3d, 0xb8, 0x50, 0xa2, 0xbd,
  0xc4, 0xd1, 0x95, 0x3d, 0xfe, 0xa1, 0xc9, 0x3b, 0x14, 0x25, 0xd3, 0x3c,
  0x02, 0xe4, 0x99, 0x3d, 0x64, 0xf4, 0x1a, 0xbd, 0xb7, 0xf2, 0x13, 0x3d,
  0xda, 0xa3, 0x46, 0xbd, 0x2a, 0x8a, 0x71, 0xbd, 0x83, 0xf7, 0x03, 0xbe,
  0xd5, 0x1a, 0x43, 0x3d, 0x91, 0x47, 0x5d, 0xbd, 0x47, 0xb6, 0x90, 0xbd,
  0x30, 0x48, 0x64, 0xbc, 0x75, 0x72, 0x13, 0xbe, 0xbc, 0xe0, 0xcd, 0x3d,
  0x60, 0x81, 0xbe, 0xbc, 0x0b, 0x57, 0xb0, 0x3d, 0x37, 0x9f, 0x49, 0xbd,
  0xa9, 0xa1, 0xdb, 0xbd, 0xd7, 0xc1, 0x3c, 0x3d, 0x60, 0x1d, 0x5b, 0x3d,
  0xf8, 0x9a, 0x13, 0x3e, 0xaf, 0x47, 0x3f, 0x3d, 0x54, 0xed, 0xba, 0x3d,
  0x21, 0x1e, 0x00, 0x3d, 0x42, 0x9d, 0x3a, 0xbd, 0xa7, 0x40, 0xab, 0x3c,
  0x47, 0xb1, 0x93, 0x3d, 0xe5, 0x9d, 0xc7, 0xbd, 0xde, 0xa5, 0x8b, 0xbd,
  0xb0, 0x03, 0x10, 0x3e, 0xc1, 0xbe, 0x25, 0x3e, 0x04, 0x44, 0xbe, 0x3c,
  0xc6, 0x8e, 0x6a, 0xbd, 0x53, 0x75, 0x48, 0xbc, 0x14, 0x7f, 0xb1, 0x3c,
  0xef, 0x2c, 0xfc, 0x3d, 0xcf, 0xbf, 0x24, 0xbe, 0xa5, 0xde, 0x05, 0x3d,
  0xec, 0xa1, 0xef, 0x3d, 0xb2, 0x66, 0xe1, 0xbd, 0xd0, 0x92, 0x2d, 0x3e,
  0xd9, 0x7d, 0x19, 0x3e, 0x40, 0xa4, 0x8e, 0x3d, 0xcd, 0x31, 0x97, 0xba,
  0x40, 0x55, 0xbd, 0x3d, 0x6d, 0x1a, 0x3f, 0x3d, 0x2d, 0xea, 0x88, 0xbc,
  0xa9, 0xe4, 0xfb, 0xbd, 0x9a, 0xed, 0xb2, 0x3d, 0x9b, 0xbc, 0x12, 0xbe,
  0xdd, 0x0f, 0xfe, 0xbd, 0x2d, 0x4f, 0x87, 0xbc, 0xf2, 0x7a, 0x30, 0x3e,
  0xaf, 0xa0, 0x82, 0x3d, 0x02, 0xff, 0xcb, 0x3d, 0x19, 0x59, 0xc3, 0x3d,
  0xd0, 0xe9, 0xba, 0xbd, 0x0e, 0x6b, 0xe1, 0x3d, 0x16, 0x3f, 0x07, 0xbe,
  0x8c, 0x01, 0x22, 0xbe, 0x73, 0xb7, 0x4e, 0x3d, 0x2e, 0x02, 0xd0, 0xbc,
  0x4b, 0x20, 0xce, 0x3d, 0xed, 0x22, 0x00, 0xbd, 0xa9, 0xd6, 0x4b, 0x3c,
  0xcb, 0xbf, 0x41, 0xba, 0x73, 0x5c, 0xd7, 0xbd, 0xe8, 0xcb, 0x32, 0x3d,
  0xf3, 0x6b, 0x28, 0x3e, 0xfb, 0x7d, 0x30, 0xbd, 0x50, 0x92, 0xe2, 0xbc,
  0x84, 0xaa, 0x8b, 0xbd, 0x16, 0xf7, 0xa3, 0xbd, 0x7a, 0xfd, 0xd1, 0xbd,
  0x6f, 0xd1, 0xf5, 0xbc, 0x0c, 0x7c, 0xb9, 0xbc, 0xe0, 0xb8, 0xee, 0x3d,
  0x50, 0xf9, 0x04, 0x3e, 0x4b, 0x6e, 0xbf, 0xbd, 0x86, 0x51, 0x0d, 0xbe,
  0x91, 0x64, 0x24, 0x3d, 0x2e, 0xae, 0x7c, 0x3c, 0x77, 0x40, 0xce, 0x3d,
  0x71, 0xb5, 0xb7, 0xbd, 0x79, 0x7c, 0x01, 0xbe, 0x66, 0xa1, 0x0c, 0xbe,
  0x92, 0x91, 0x1a, 0x3e, 0x52, 0xd6, 0xf4, 0x3d, 0x99, 0x5f, 0xaa, 0xbc,
  0x6e, 0x34, 0x57, 0x3d, 0x77, 0xb0, 0x19, 0x3e, 0xac, 0xb0, 0x41, 0x3d,
  0x0e, 0x44, 0xa9, 0xbc, 0xef, 0x7d, 0xab, 0x3b, 0x14, 0xa3, 0x05, 0x3c,
  0x7c, 0xf0, 0x08, 0xbd, 0x75, 0x1a, 0x73, 0x3d, 0x71, 0xa8, 0x97, 0x3d,
  0x87, 0x94, 0x2f, 0xbd, 0x1a, 0x41, 0x8c, 0x3d, 0x4d, 0x69, 0x1a, 0xbe,
  0xc3, 0x60, 0x34, 0x3e, 0xa3, 0xed, 0x1b, 0xbe, 0x62, 0x0f, 0x05, 0x3e,
  0xe0, 0x7c, 0x45, 0xbd, 0xbf, 0x36, 0xf4, 0x3b, 0x5b, 0xb3, 0x3c, 0x3e,
  0x2d, 0xbf, 0xaa, 0xbd, 0x7b, 0x6d, 0x23, 0xbe, 0x5b, 0xdc, 0xe3, 0xbd,
  0x75, 0x0a, 0x02, 0xbe, 0xad, 0x2a, 0xba, 0x3d, 0x58, 0xcf, 0xd1, 0xbd,
  0x6b, 0x6c, 0x01, 0x3c, 0xe3, 0x4a, 0xd9, 0xbd, 0xd1, 0xa9, 0xfe, 0x3b,
  0x7a, 0x12, 0x28, 0x3e, 0x85, 0x7b, 0x93, 0x3d, 0x20, 0x9b, 0x21, 0xbe,
  0xf3, 0x8e, 0x75, 0x3c, 0xc5, 0x7c, 0xd5, 0xbd, 0x7c, 0xd6, 0x28, 0x3e,
  0x24, 0xf2, 0x84, 0xbd, 0x87, 0x82, 0x1f, 0x3e, 0xd7, 0x0d, 0x06, 0xbe,
  0xb8, 0x2f, 0x10, 0xbd, 0x53, 0x60, 0x18, 0xbe, 0xf1, 0x65, 0x20, 0x3e,
  0xf8, 0x22, 0x1e, 0x3c, 0x1c, 0xd1, 0x32, 0xbe, 0x84, 0x56, 0xf8, 0x3d,
  0xc8, 0x2c, 0x12, 0xbe, 0xe5, 0xff, 0xc0, 0x3d, 0x62, 0xc3, 0xdc, 0xbd,
  0x9a, 0xec, 0xfc, 0xbd, 0xce, 0x40, 0xa0, 0xbd, 0xe1, 0x07, 0xc2, 0xbd,
  0x5d, 0x1f, 0x07, 0xbd, 0x79, 0xa5, 0x99, 0xbc, 0x7b, 0x2d, 0x1a, 0xbe,
  0x67, 0x83, 0x0e, 0x3b, 0x21, 0xa1, 0x72, 0xbd, 0xcb, 0x4a, 0x8c, 0xbd,
  0xe5, 0xba, 0x08, 0xbe, 0x5c, 0xe3, 0x2e, 0xbe, 0x32, 0x72, 0x1e, 0xbd,
  0xcb, 0xed, 0x2d, 0xbd, 0x8b, 0x2a, 0x28, 0xbe, 0x5f, 0x37, 0xd4, 0x3d,
  0x51, 0x9c, 0x2a, 0x3d, 0x87, 0xd5, 0x49, 0x3d, 0x73, 0x8a, 0xd4, 0x3d,
  0x13, 0x70, 0x1c, 0xbe, 0x2e, 0x19, 0x08, 0x3e, 0x1f, 0x64, 0x17, 0xbe,
  0xd9, 0x54, 0xd4, 0xbd, 0xb6, 0x00, 0x17, 0x3b, 0xc4, 0x35, 0x1c, 0x3d,
  0xe1, 0x1f, 0x37, 0xbe, 0x95, 0x4a, 0xd5, 0x3c, 0x0c, 0x1b, 0x6e, 0x3d,
  0xfe, 0x75, 0x4b, 0x3d, 0x4a, 0x53, 0xce, 0x3c, 0x06, 0x21, 0x22, 0xbe,
  0xb3, 0x88, 0xbd, 0x3d, 0xde, 0xaa, 0x03, 0xbe, 0x76, 0x7b, 0x03, 0xbe,
  0xd9, 0x4e, 0xf9, 0x3d, 0xa0, 0xfd, 0x87, 0x3d, 0xb5, 0xa2, 0xf2, 0x3d,
  0x86, 0x57, 0xe2, 0x3c, 0xe8, 0xb8, 0x64, 0x3c, 0x98, 0x2b, 0x17, 0x3e,
  0x02, 0x19, 0x1f, 0x3d, 0x91, 0xf2, 0xbf, 0xbd, 0x4a, 0xfe, 0x0f, 0x3e,
  0xe5, 0x83, 0x73, 0x3d, 0x3f, 0x25, 0xf0, 0x3b, 0x81, 0xc3, 0x78, 0xbc,
  0xea, 0x00, 0x20, 0x3e, 0xdd, 0x21, 0x48, 0xbd, 0x61, 0x21, 0xd3, 0xbd,
  0x0a, 0xc3, 0x27, 0xbd, 0x33, 0x9f, 0x90, 0x3d, 0xe6, 0xf3, 0x0e, 0x3d,
  0xeb, 0xd1, 0xf8, 0x3d, 0xae, 0xc7, 0x28, 0xbe, 0xb1, 0xad, 0x1d, 0x3d,
  0x23, 0x37, 0x9e, 0x3d, 0x95, 0xac, 0xdd, 0xbd, 0x4b, 0x91, 0xd0, 0x3d,
  0xf8, 0xee, 0xed, 0xbd, 0x59, 0xaf, 0x35, 0xbe, 0xeb, 0x9b, 0x03, 0x3e,
  0x39, 0x64, 0x81, 0xbd, 0xbe, 0xb8, 0x1b, 0x3e, 0xdf, 0xf3, 0x37, 0x3d,
  0x84, 0x8f, 0xbe, 0x3d, 0x8b, 0xc1, 0x9a, 0x3c, 0xbf, 0xf3, 0xf9, 0x3b,
  0xde, 0x02, 0xfb, 0x3d, 0x1c, 0xa2, 0xef, 0x3d, 0x40, 0x12, 0xd8, 0x3d,
  0xb7, 0x48, 0x0f, 0x3e, 0x26, 0x9a, 0x00, 0xbd, 0x69, 0xc8, 0xe9, 0xbc,
  0xb9, 0x9b, 0xba, 0xbd, 0x50, 0xeb, 0x7a, 0x3d, 0xfa, 0xb0, 0xe9, 0x3d,
  0x8e, 0x05, 0x1d, 0xbe, 0x6c, 0xbd, 0x16, 0xbe, 0xba, 0xd6, 0x0f, 0x3e,
  0xf2, 0x70, 0x23, 0xbe, 0x6d, 0xfc, 0x1f, 0xbe, 0x0c, 0x0b, 0x3a, 0xbe,
  0x31, 0x04, 0x1a, 0xbe, 0x75, 0xe3, 0xf3, 0xbd, 0x85, 0x26, 0xdf, 0xbd,
  0x66, 0xce, 0x3e, 0xbe, 0x0a, 0x3d, 0x14, 0xbe, 0x38, 0x92, 0x02, 0xbe,
  0x7c, 0xe3, 0xbc, 0x3d, 0x66, 0x23, 0x2e, 0xbe, 0x10, 0x86, 0x95, 0xbc,
  0x0c, 0x0f, 0x16, 0xbe, 0x0c, 0x4b, 0x4c, 0x3d, 0x04, 0xad, 0x34, 0xbc,
  0x30, 0xd7, 0xd5, 0x3c, 0x0d, 0xf1, 0x0b, 0xbd, 0x74, 0xf5, 0xcc, 0x3d,
  0x3e, 0xc3, 0xba, 0x3d, 0xf8, 0x63, 0x22, 0xbd, 0xe2, 0x13, 0x05, 0x3e,
  0x75, 0x3f, 0xb1, 0x3c, 0xb5, 0x00, 0xea, 0x3d, 0x91, 0x71, 0x98, 0xbd,
  0x4c, 0x0a, 0x0d, 0xbd, 0xef, 0x0a, 0x9d, 0x3d, 0x83, 0x8c, 0x2e, 0xbc,
  0xcc, 0x04, 0x05, 0x3e, 0x17, 0xae, 0xcd, 0xbd, 0x54, 0x1b, 0x07, 0x3d,
  0x16, 0x27, 0x07, 0x3d, 0x60, 0x09, 0x20, 0x3e, 0x68, 0x14, 0x21, 0xbe,
  0x83, 0x10, 0xe4, 0xbd, 0x8c, 0x72, 0x16, 0xbe, 0x6c, 0x88, 0x0a, 0x3e,
  0x63, 0xfb, 0xa0, 0xbd, 0x08, 0x03, 0xa9, 0xbd, 0xf0, 0xa9, 0xaa, 0xbd,
  0xaf, 0xac, 0xf1, 0x3d, 0xb0, 0x43, 0x10, 0xbc, 0x0c, 0xeb, 0x20, 0xbe,
  0x77, 0xa6, 0x28, 0xbe, 0x07, 0x8e, 0x48, 0xbc, 0x14, 0x13, 0x19, 0x3e,
  0x38, 0x24, 0xdc, 0xbd, 0x29, 0x60, 0xcc, 0x3d, 0x8f, 0x68, 0x58, 0xbd,
  0x31, 0xa0, 0x11, 0x3e, 0x58, 0xf5, 0x8b, 0x3d, 0x17, 0x35, 0xe3, 0xbd,
  0x31, 0x02, 0x98, 0xbc, 0x01, 0xe8, 0xfb, 0xbd, 0x8e, 0x61, 0x96, 0xbd,
  0x66, 0xe0, 0x33, 0x3d, 0xa4, 0xf6, 0x34, 0x3d, 0xa8, 0xe7, 0xa9, 0xbd,
  0xe7, 0x66, 0x16, 0xbe, 0x63, 0xb8, 0x92, 0x3d, 0x2d, 0x50, 0xd4, 0x3d,
  0x48, 0xfa, 0x3b, 0xbe, 0x8d, 0x59, 0x90, 0xbd, 0x75, 0xf1, 0x37, 0x3b,
  0xfe, 0x01, 0x8d, 0x3d, 0x7e, 0x8a, 0x9c, 0xbd, 0x78, 0x84, 0x28, 0xbc,
  0x01, 0x85, 0x0c, 0x3d, 0x3a, 0xe3, 0x0f, 0xbd, 0x15, 0x95, 0xe7, 0xbd,
  0x58, 0x5e, 0xde, 0x3c, 0x9f, 0xea, 0x44, 0x3d, 0x4e, 0xe0, 0xd7, 0x3d,
  0x3a, 0xd7, 0x3e, 0xbc, 0x78, 0xca, 0xbf, 0xbd, 0x92, 0xaf, 0x26, 0xbe,
  0x34, 0xd6, 0x27, 0xbe, 0x16, 0xcf, 0x87, 0x3d, 0x1e, 0x9b, 0xd2, 0x3d,
  0xae, 0xf9, 0x5a, 0xbd, 0x13, 0x15, 0xee, 0xbd, 0x71, 0x83, 0x29, 0x3d,
  0x93, 0x34, 0xc0, 0xbd, 0x82, 0x88, 0x92, 0x3d, 0xe9, 0x4e, 0xff, 0xbd,
  0xb8, 0x2e, 0xdd, 0x3d, 0x1d, 0x42, 0x56, 0xbd, 0x63, 0x62, 0x21, 0x3e,
  0xcf, 0xc2, 0xa1, 0x3a, 0x35, 0x84, 0xf8, 0xbd, 0x2c, 0x4c, 0xf6, 0xbb,
  0xc6, 0xe3, 0x7b, 0x3d, 0x42, 0x16, 0x99, 0x3d, 0x8e, 0x0e, 0x5c, 0x3d,
  0x94, 0x86, 0x28, 0xbe, 0x0f, 0xe3, 0xdf, 0x3d, 0x2f, 0x2e, 0xb1, 0x3d,
  0xb0, 0xc1, 0x3c, 0xbd, 0x14, 0x66, 0xce, 0xbc, 0x3c, 0x65, 0xa4, 0x3d,
  0xae, 0x05, 0x01, 0xbe, 0x58, 0xf0, 0x26, 0xbe, 0x7b, 0x0b, 0x1d, 0x3e,
  0xcc, 0x87, 0x36, 0x3c, 0x83, 0xb9, 0x82, 0xbd, 0x5c, 0xaf, 0x27, 0xbe,
  0xd8, 0x69, 0xc6, 0xbd, 0xd6, 0x06, 0x1f, 0x3d, 0x82, 0x37, 0xa9, 0xbc,
  0x54, 0x6d, 0x07, 0x3e, 0xcb, 0xa0, 0x79, 0x3b, 0x98, 0xf1, 0xed, 0xbc,
  0xf8, 0x5c, 0x47, 0xbd, 0x67, 0x02, 0xe3, 0xbc, 0x69, 0x40, 0xaa, 0xbd,
  0xbd, 0xeb, 0x82, 0xbd, 0xc0, 0x61, 0x24, 0x3e, 0x30, 0x57, 0x0d, 0xbe,
  0x28, 0x18, 0x44, 0x3d, 0xae, 0x51, 0x0f, 0x3e, 0x07, 0x4e, 0x22, 0xbc,
  0x9d, 0xb3, 0x79, 0xbd, 0xc0, 0xdb, 0x75, 0x3d, 0x2a, 0x51, 0x90, 0xbd,
  0xb3, 0x35, 0x9e, 0x3d, 0x9a, 0xc1, 0x02, 0x3e, 0xc4, 0xe3, 0x7c, 0x3d,
  0xee, 0xbe, 0x95, 0xbc, 0x50, 0xc0, 0xcb, 0x3c, 0x05, 0xe2, 0x1d, 0xbe,
  0x3e, 0x50, 0x2a, 0x3d, 0x94, 0xc2, 0xab, 0x3d, 0x31, 0x53, 0x0d, 0xbe,
  0x8d, 0x3a, 0xe4, 0xbd, 0x5c, 0xaa, 0xfb, 0x3d, 0xf0, 0x9a, 0x20, 0xbd,
  0x88, 0xa4, 0x97, 0x3c, 0x2f, 0x6b, 0x0e, 0x3e, 0x12, 0x14, 0x9c, 0x3d,
  0xbd, 0xb3, 0xf8, 0xbd, 0x96, 0x6d, 0x12, 0x3e, 0xd9, 0xce, 0x2f, 0xbe,
  0xa5, 0x3a, 0xf3, 0xbd, 0xa8, 0xbb, 0x38, 0x3d, 0x67, 0x6f, 0xe2, 0xbd,
  0x09, 0x31, 0x2a, 0xbd, 0x0f, 0x85, 0xc8, 0x3b, 0x0e, 0xc9, 0x1e, 0xbe,
  0xa6, 0xfd, 0x6a, 0x3d, 0x8f, 0xeb, 0xc7, 0x3d, 0x39, 0xd2, 0x40, 0x3d,
  0x56, 0x75, 0xa4, 0xbc, 0x40, 0x9b, 0x09, 0x3e, 0xef, 0x7f, 0xa8, 0xbd,
  0xe2, 0x4e, 0x36, 0x3e, 0xd5, 0xd4, 0x1c, 0x3e, 0x9f, 0x1f, 0x11, 0x3e,
  0x49, 0x31, 0x32, 0xbe, 0xa1, 0xcc, 0xb7, 0x3c, 0x0b, 0xf4, 0x20, 0x3c,
  0xee, 0xc7, 0x27, 0xbe, 0x70, 0x5d, 0x98, 0x3d, 0x04, 0x54, 0xd7, 0xbd,
  0x12, 0xcd, 0xad, 0x3d, 0xc6, 0xd4, 0x32, 0x3e, 0x44, 0xa7, 0x01, 0xbe,
  0x54, 0x9e, 0x18, 0x3e, 0x71, 0xd1, 0xa2, 0x3d, 0x19, 0x6f, 0xbe, 0x3d,
  0x8c, 0xe5, 0x1a, 0x3e, 0x16, 0x7b, 0x87, 0xbc, 0x8e, 0xde, 0x8f, 0xbd,
  0x3a, 0x62, 0x0d, 0xbd, 0x63, 0xb6, 0xf1, 0x3d, 0x76, 0x7d, 0x85, 0xbd,
  0xbf, 0x0a, 0xa9, 0x3d, 0xca, 0x20, 0x8f, 0xbc, 0x90, 0xad, 0x9d, 0x3d,
  0x0b, 0x5a, 0x91, 0x3d, 0x08, 0x74, 0x9c, 0x3d, 0xc5, 0xd7, 0xc7, 0xbc,
  0xb1, 0xd9, 0x13, 0x3e, 0xd8, 0x33, 0xbb, 0xbc, 0x59, 0x5c, 0x2e, 0xbe,
  0xe2, 0x45, 0x33, 0xbd, 0x14, 0xb5, 0x3a, 0x3c, 0x0c, 0xac, 0x8d, 0x3d,
  0x70, 0xe7, 0xdc, 0xbc, 0xe6, 0xb6, 0x15, 0xbe, 0x73, 0x6e, 0x29, 0x3e,
  0x82, 0x29, 0xf0, 0xbd, 0x4b, 0x10, 0x11, 0x3e, 0xac, 0x35, 0xd8, 0x3d,
  0x5c, 0xc5, 0x93, 0x3d, 0x76, 0x2d, 0x2b, 0xbe, 0x5b, 0x68, 0xe5, 0xbd,
  0xf7, 0x05, 0xaa, 0x3d, 0xc3, 0xf2, 0x23, 0x3d, 0xa0, 0x87, 0x03, 0xbe,
  0xf4, 0xe7, 0x00, 0x3c, 0xfe, 0xc7, 0x9a, 0x3d, 0x95, 0x42, 0x93, 0xbc,
  0x21, 0x09, 0x34, 0xbd, 0x58, 0x9a, 0xfe, 0xbd, 0x66, 0xc4, 0x66, 0xbd,
  0x20, 0x8f, 0x1f, 0x3e, 0xe0, 0x64, 0xcf, 0xbd, 0x10, 0x51, 0xd6, 0x3d,
  0x78, 0x32, 0x22, 0xbe, 0xb4, 0x89, 0xd8, 0x3d, 0x2c, 0x67, 0x9f, 0x3d,
  0x50, 0x27, 0x83, 0xbd, 0x05, 0x6c, 0xac, 0x3c, 0x6d, 0x46, 0x0a, 0x3e,
  0x58, 0x42, 0x01, 0xbe, 0xce, 0x44, 0xfa, 0x3d, 0x72, 0xea, 0xe4, 0xbd,
  0xc9, 0x43, 0xbf, 0xbd, 0x6b, 0x87, 0x93, 0xbd, 0xdf, 0xd9, 0xc8, 0x3d,
  0xe5, 0x49, 0x22, 0x3e, 0x67, 0x5b, 0x86, 0xbd, 0xff, 0xb4, 0x16, 0xbe,
  0x60, 0x82, 0x32, 0xbd, 0x05, 0x4c, 0x95, 0x3d, 0x09, 0x53, 0x80, 0x3d,
  0x2b, 0x96, 0xd3, 0xbd, 0x11, 0xf0, 0xea, 0x3d, 0x76, 0x2d, 0x1f, 0x3c,
  0x40, 0x8d, 0x84, 0x3d, 0x1b, 0xa1, 0xb9, 0xbd, 0x50, 0x64, 0x8a, 0x3d,
  0xf9, 0xe8, 0xb7, 0xbd, 0x8c, 0xff, 0xd7, 0xbb, 0xb0, 0x30, 0xb3, 0xbd,
  0xe4, 0x90, 0xb2, 0x3d, 0x15, 0xc1, 0x85, 0x3d, 0xdc, 0xef, 0xb5, 0x3d,
  0xa5, 0x1a, 0x0d, 0x3e, 0xac, 0x8a, 0xa5, 0xbd, 0x3c, 0xe9, 0xa5, 0xbd,
  0x7b, 0x3f, 0x14, 0x3e, 0x61, 0x1a, 0x36, 0x3e, 0x73, 0xb8, 0xe5, 0x3c,
  0xaa, 0x2d, 0x0d, 0xbc, 0xb2, 0xbf, 0x8f, 0xbd, 0x65, 0x4d, 0xfb, 0x3d,
  0x40, 0x5e, 0xfd, 0xbd, 0xd8, 0xc7, 0xa8, 0x3d, 0xa6, 0x7c, 0x76, 0xbc,
  0x4e, 0xdb, 0xc6, 0xbd, 0x59, 0x47, 0xfd, 0xbc, 0x3c, 0xaa, 0x3f, 0xbd,
  0x27, 0x9d, 0x14, 0x3d, 0x6e, 0x3b, 0x3c, 0xbd, 0xee, 0x6b, 0x0e, 0xbc,
  0x1a, 0x94, 0xcc, 0x3d, 0xe8, 0xaa, 0x69, 0xbd, 0xd5, 0x7c, 0x40, 0x3d,
  0x00, 0x6e, 0xce, 0xbd, 0xb0, 0x17, 0xe7, 0xbc, 0x19, 0xfc, 0xb1, 0xbd,
  0xd0, 0xbc, 0x38, 0xbd, 0x34, 0x7f, 0xfd, 0xbd, 0xbb, 0xfb, 0x8a, 0x3d,
  0x04, 0xdf, 0x9d, 0xbc, 0xf6, 0xb9, 0xf3, 0xbd, 0xc2, 0xb3, 0xf7, 0xbd,
  0x42, 0x9c, 0x1f, 0x3e, 0x08, 0xfb, 0x44, 0x3d, 0x4a, 0x78, 0x0a, 0x3e,
  0xc6, 0x4c, 0xa2, 0x38, 0xac, 0x8d, 0x41, 0x3d, 0x4b, 0xc9, 0x1b, 0x3c,
  0xd5, 0xc3, 0xb8, 0x3d, 0x32, 0x17, 0x17, 0xbe, 0x51, 0x21, 0x45, 0xbc,
  0x47, 0x43, 0x98, 0xbb, 0x27, 0x70, 0x68, 0xbd, 0xad, 0x60, 0xc2, 0x3d,
  0x86, 0x67, 0xb6, 0xbc, 0xb7, 0x46, 0x9b, 0x3c, 0x02, 0x25, 0x7a, 0xbd,
  0x1a, 0xa5, 0x98, 0xbd, 0xc2, 0x08, 0xd0, 0xbb, 0x08, 0x58, 0x1c, 0x3c,
  0xe4, 0x43, 0x82, 0xbd, 0xb1, 0x52, 0x5c, 0x3d, 0xa7, 0x27, 0x24, 0x3e,
  0x21, 0x43, 0x17, 0x3e, 0x95, 0xb3, 0xfa, 0xbd, 0x84, 0x75, 0xce, 0x3d,
  0x14, 0x1e, 0xe4, 0xbd, 0xad, 0xaf, 0xec, 0xbb, 0x49, 0xae, 0x0c, 0x3e,
  0x06, 0x2c, 0x0f, 0x3e, 0xae, 0x53, 0xf3, 0xbd, 0x6e, 0xf0, 0x4b, 0xbd,
  0xcc, 0x49, 0xcb, 0xbd, 0xc9, 0xf9, 0x25, 0x3e, 0x27, 0x90, 0xbb, 0x3d,
  0x31, 0x05, 0x0c, 0xbe, 0x95, 0x0c, 0x59, 0x3d, 0x77, 0x56, 0x34, 0xbc,
  0xbd, 0xbf, 0xf0, 0xbd, 0xf9, 0xba, 0x92, 0xbc, 0x16, 0xe2, 0x1d, 0x3e,
  0x1c, 0xfb, 0x2d, 0xbc, 0x6f, 0x09, 0x0f, 0x3e, 0xff, 0x0b, 0x4b, 0xbc,
  0x09, 0xf0, 0xe7, 0x3d, 0xe2, 0xa4, 0xfb, 0xbd, 0x76, 0x5e, 0xa3, 0xbd,
  0xd7, 0xfc, 0xc7, 0x3d, 0xd7, 0x46, 0xda, 0x3d, 0x92, 0xad, 0x6c, 0x3d,
  0x92, 0x5d, 0x00, 0xbe, 0x90, 0x9a, 0x01, 0x3e, 0xae, 0x07, 0xc2, 0xbc,
  0xe5, 0x31, 0x83, 0xbd, 0x7f, 0x11, 0xef, 0x3d, 0x48, 0x64, 0x2d, 0xbd,
  0x92, 0xbd, 0x36, 0x3e, 0xe6, 0xdd, 0xc0, 0xbd, 0xf8, 0x98, 0x33, 0x3e,
  0xa0, 0x60, 0x04, 0x3e, 0x52, 0xd6, 0x17, 0xbe, 0x3b, 0x11, 0x0e, 0xbe,
  0x6a, 0x87, 0x8c, 0xbd, 0x59, 0x58, 0xb8, 0x3d, 0x41, 0x2a, 0x34, 0x3d,
  0x41, 0x9b, 0xb4, 0xbd, 0x08, 0x58, 0x57, 0xbd, 0x61, 0xc5, 0x2d, 0x3e,
  0xf8, 0x58, 0xd3, 0xbd, 0x42, 0x26, 0x2a, 0x3e, 0x2e, 0x28, 0x0b, 0x3e,
  0xa6, 0xc7, 0x23, 0x3e, 0x56, 0x0b, 0xbd, 0xbd, 0xd9, 0x97, 0xee, 0x3d,
  0xd0, 0xb4, 0xa7, 0x3d, 0xe5, 0xf4, 0xd6, 0x3c, 0x41, 0x6b, 0x82, 0xbd,
  0x7c, 0x33, 0xa5, 0xbd, 0xf9, 0xfb, 0x43, 0x3d, 0x25, 0xd4, 0x88, 0x3d,
  0xe1, 0x79, 0x9c, 0x3b, 0xe1, 0x23, 0xdc, 0x3d, 0x97, 0x29, 0xdf, 0x3d,
  0x3f, 0xba, 0xa5, 0x3d, 0x3c, 0x14, 0xce, 0xbd, 0xbc, 0xe9, 0xda, 0x3b,
  0x36, 0xbb, 0x01, 0xbe, 0x15, 0x1e, 0x5a, 0xbd, 0x9b, 0x71, 0x38, 0x3d,
  0xbf, 0x47, 0x2b, 0xbe, 0x60, 0x87, 0xb1, 0x3d, 0xc1, 0xb4, 0x4c, 0xbd,
  0x7d, 0x50, 0x56, 0xbd, 0xdb, 0xca, 0x6a, 0x3d, 0xf6, 0xe4, 0xc2, 0x3c,
  0xff, 0xd9, 0x0a, 0xbe, 0x4a, 0x49, 0x56, 0x3d, 0xc8, 0xfb, 0xbb, 0x3d,
  0x7b, 0xf6, 0xfe, 0xbd, 0xaa, 0x47, 0xb3, 0xbd, 0xd7, 0xfe, 0x0b, 0xbd,
  0x49, 0xab, 0xbe, 0x3c, 0x6f, 0x71, 0xe4, 0xbd, 0x7f, 0x5e, 0x99, 0xbd,
  0xde, 0x55, 0xdb, 0xbd, 0x2b, 0x74, 0x20, 0x3d, 0xbc, 0xd1, 0x90, 0x3c,
  0x74, 0x54, 0x0e, 0x3d, 0x2e, 0x96, 0xcf, 0xbd, 0xeb, 0xa7, 0xe0, 0xbc,
  0x0d, 0x24, 0x24, 0xbd, 0x32, 0x6b, 0x0d, 0xbe, 0x8c, 0x6a, 0xb8, 0xbd,
  0x16, 0x9d, 0xfd, 0xbd, 0x6d, 0x7c, 0x34, 0x3e, 0xec, 0xe8, 0x01, 0xbe,
  0x66, 0xc7, 0x91, 0x3b, 0x62, 0xdd, 0x53, 0x3d, 0x63, 0xeb, 0x17, 0xbe,
  0x81, 0xed, 0xc6, 0xbd, 0x4a, 0x37, 0x1b, 0x3d, 0xdc, 0xd8, 0x1a, 0x3e,
  0xa9, 0x7e, 0xb5, 0xbc, 0x75, 0x66, 0xc6, 0xbd, 0x87, 0x5f, 0x29, 0x3e,
  0x0b, 0xbf, 0x64, 0x3d, 0x4c, 0xe3, 0x21, 0xbd, 0xf5, 0xb5, 0xa8, 0xbd,
  0x03, 0x87, 0x0c, 0xbe, 0x46, 0x22, 0x8d, 0x3d, 0x7b, 0xad, 0xad, 0x3a,
  0x7e, 0x68, 0x76, 0x3d, 0x1f, 0x1f, 0x6d, 0xbc, 0xbd, 0x68, 0xb5, 0xba,
  0x65, 0x29, 0x0c, 0xbe, 0xba, 0xc0, 0xed, 0x3d, 0xe9, 0x33, 0xdf, 0x3d,
  0x43, 0x42, 0x22, 0x3e, 0xcd, 0x3f, 0x25, 0xbe, 0x1e, 0xc0, 0xf6, 0xbd,
  0x54, 0x18, 0x37, 0x3e, 0x48, 0xb9, 0xa4, 0xbd, 0x26, 0x87, 0xca, 0x3d,
  0x07, 0x6b, 0x10, 0x3e, 0x38, 0x01, 0x51, 0x3d, 0x67, 0x3e, 0x6a, 0x3d,
  0xa3, 0xe0, 0x37, 0x3e, 0xdb, 0x09, 0x0a, 0xbe, 0x06, 0x5b, 0xce, 0x3d,
  0x2c, 0x0a, 0x70, 0xbd, 0x4e, 0xff, 0x82, 0x3d, 0x24, 0xda, 0x75, 0xbd,
  0x9d, 0x46, 0x05, 0x3d, 0x51, 0xe9, 0x95, 0x3a, 0xfc, 0x5f, 0x54, 0xbd,
  0xf8, 0x13, 0xc0, 0x3d, 0x26, 0x61, 0xba, 0xbd, 0xda, 0xd8, 0x86, 0x3c,
  0x2b, 0xf5, 0x84, 0x3d, 0xd5, 0x01, 0xfb, 0xbd, 0x11, 0xdb, 0x6d, 0xbd,
  0x8d, 0xeb, 0x03, 0xbe, 0x9f, 0x3b, 0x30, 0x3e, 0x93, 0x68, 0xd8, 0x3c,
  0x58, 0xd2, 0x2b, 0x3e, 0xa7, 0x2d, 0xea, 0x3d, 0xe8, 0x03, 0xeb, 0x3c,
  0xf6, 0x2c, 0x89, 0xbb, 0x89, 0xf1, 0x6e, 0x3d, 0x14, 0xd7, 0x13, 0xbe,
  0x99, 0xc7, 0x1f, 0xbe, 0x34, 0x97, 0x05, 0x3e, 0xb1, 0xe3, 0xe9, 0x39,
  0x16, 0x6a, 0x08, 0xbd, 0xe4, 0x43, 0xf8, 0xbd, 0xf6, 0xa2, 0x12, 0xbe,
  0xf7, 0x94, 0x2b, 0x3e, 0x67, 0x8c, 0xe4, 0x3c, 0xa7, 0x35, 0xfd, 0xbd,
  0xae, 0xac, 0x4a, 0x3c, 0xfb, 0x30, 0x2f, 0x3e, 0xbe, 0x62, 0x06, 0x3e,
  0x4b, 0x12, 0x9b, 0xbd, 0x8c, 0x27, 0x72, 0x3c, 0x15, 0x07, 0x1f, 0x3d,
  0xbd, 0x4a, 0x10, 0xbe, 0x2e, 0x06, 0x17, 0xbe, 0xd1, 0x7f, 0x2e, 0xbe,
  0x6a, 0xff, 0x00, 0xbe, 0x13, 0xd5, 0x1f, 0x3e, 0x4a, 0x57, 0x67, 0xbd,
  0x54, 0xb8, 0x42, 0x3d, 0x86, 0xdd, 0x57, 0xbc, 0xb8, 0x73, 0x84, 0x3c,
  0x57, 0x59, 0xe2, 0x3d, 0xf6, 0xe8, 0xc3, 0x3b, 0x0b, 0x6a, 0x0d, 0x3e,
  0x6b, 0x1f, 0x01, 0x3d, 0x32, 0x58, 0x11, 0x3e, 0x37, 0xa6, 0x92, 0xbc,
  0xad, 0x59, 0x08, 0xbe, 0x67, 0x37, 0xec, 0xbd, 0x30, 0x8e, 0xc6, 0x3d,
  0xfe, 0xa1, 0x69, 0xbd, 0x20, 0x5a, 0xc4, 0xbc, 0x7b, 0xa9, 0xcd, 0xbd,
  0xa4, 0x4b, 0x0e, 0x3c, 0xfc, 0x30, 0xd3, 0x3d, 0x68, 0x6b, 0x1f, 0xbe,
  0x64, 0x5b, 0xa8, 0xbd, 0x6b, 0x3c, 0x40, 0x3d, 0x61, 0xae, 0x06, 0xbe,
  0xff, 0x95, 0xb8, 0x3d, 0x8a, 0xd6, 0x56, 0x3d, 0x25, 0x13, 0x19, 0xbe,
  0x05, 0x74, 0x25, 0x3e, 0xd3, 0x37, 0x10, 0xbd, 0x78, 0x39, 0x22, 0xbe,
  0x98, 0x71, 0x33, 0xbc, 0x2c, 0x7e, 0x11, 0x3e, 0x37, 0x9d, 0x64, 0x3d,
  0xd4, 0x70, 0x87, 0xbd, 0xae, 0xdc, 0x7c, 0x3c, 0xea, 0x28, 0xf1, 0xbd,
  0x74, 0x09, 0xb4, 0xbc, 0x94, 0x15, 0x88, 0xbd, 0xf3, 0x2b, 0xad, 0x3b,
  0x8d, 0xf0, 0x04, 0x3e, 0xf5, 0xf0, 0x0f, 0x3e, 0xbc, 0x2c, 0x46, 0x3d,
  0x0e, 0x87, 0xdb, 0x3d, 0xe1, 0x25, 0xef, 0x3c, 0x01, 0x40, 0xc4, 0x3d,
  0x26, 0x74, 0x99, 0xbd, 0xee, 0xe7, 0x1f, 0xbe, 0xd0, 0xd5, 0x1a, 0x3e,
  0x76, 0x19, 0xb7, 0xbd, 0x1e, 0xb2, 0x14, 0xbe, 0xa5, 0x79, 0x96, 0xbb,
  0x0c, 0xb6, 0xcb, 0x3d, 0x91, 0xe6, 0xe9, 0xbd, 0x59, 0x76, 0x81, 0x3c,
  0x3b, 0xdf, 0x13, 0x3e, 0x7a, 0xf5, 0x26, 0xbe, 0x57, 0xd6, 0x20, 0x3e,
  0x17, 0xd6, 0xd3, 0xbd, 0x3d, 0x1c, 0xcb, 0x3c, 0x1b, 0xb2, 0xbd, 0x3d,
  0x74, 0x15, 0x1d, 0xbe, 0x84, 0x59, 0x06, 0xbe, 0x90, 0x52, 0xbe, 0xbd,
  0x9b, 0x8f, 0x13, 0x3e, 0x90, 0x3e, 0x29, 0xbd, 0xa4, 0x1a, 0x2d, 0xbe,
  0xd2, 0x72, 0xc3, 0xbd, 0x0e, 0x90, 0xa0, 0xbd, 0x79, 0x89, 0x0b, 0xbd,
  0xd8, 0x93, 0xcd, 0xbd, 0x49, 0x94, 0xbf, 0xbd, 0x07, 0x56, 0x36, 0x3d,
  0xce, 0xb4, 0x95, 0xbd, 0xdc, 0x72, 0x10, 0xbe, 0x92, 0x2d, 0x17, 0xbe,
  0x32, 0x23, 0xa7, 0x3d, 0xde, 0xe2, 0xd1, 0x3d, 0xa2, 0xb1, 0xe6, 0x3d,
  0x31, 0x3a, 0x19, 0x3e, 0x94, 0xe9, 0xc9, 0xbd, 0x56, 0x9f, 0x17, 0xbe,
  0x88, 0xc8, 0xec, 0xbd, 0xc9, 0x43, 0xc4, 0x3d, 0x9a, 0xfb, 0xb6, 0x3d,
  0xfb, 0x68, 0xd5, 0xbd, 0x71, 0x10, 0x8a, 0x3d, 0xc3, 0xd1, 0xd7, 0x3d,
  0x52, 0x83, 0xe4, 0x3d, 0x6e, 0x40, 0x1f, 0xbd, 0x2d, 0xfe, 0x37, 0x3d,
  0x12, 0x66, 0xc8, 0xbb, 0xe7, 0x5f, 0x1d, 0x3d, 0x37, 0x4d, 0xcc, 0xbd,
  0xee, 0xaa, 0x08, 0x3e, 0xc2, 0xea, 0xb6, 0xbc, 0xee, 0x75, 0x05, 0x3e,
  0xfc, 0x48, 0x0a, 0x3e, 0xc0, 0xc7, 0xe5, 0xbd, 0xd4, 0x92, 0x72, 0xbd,
  0xd9, 0x5d, 0xe2, 0x3b, 0xea, 0xaa, 0xcf, 0x3d, 0x04, 0x74, 0x2b, 0xbe,
  0xca, 0x93, 0x3e, 0x3d, 0x67, 0xdf, 0x26, 0x3e, 0x9a, 0xcb, 0x20, 0x3e,
  0x4d, 0xe8, 0x1c, 0x3e, 0x3d, 0x22, 0xaa, 0x3d, 0xe9, 0x05, 0x96, 0xbc,
  0xf3, 0xc0, 0x97, 0x3d, 0xdd, 0xec, 0xed, 0xbd, 0xb6, 0x02, 0x69, 0x3d,
  0x03, 0xe8, 0x16, 0xbe, 0xb0, 0x2c, 0x9c, 0xbd, 0xc8, 0x74, 0x05, 0xbe,
  0x71, 0xdf, 0xcb, 0x3d, 0x68, 0xd9, 0xda, 0x3d, 0xd0, 0x5b, 0x30, 0xbe,
  0x53, 0x68, 0x95, 0x3d, 0xac, 0x04, 0xb3, 0xbc, 0x33, 0x0b, 0x14, 0x3e,
  0x49, 0x5e, 0x36, 0x3d, 0x99, 0x8a, 0x75, 0x3d, 0x54, 0xf7, 0xa1, 0x3d,
  0x8d, 0x7c, 0x8b, 0xbd, 0x2a, 0xa1, 0x8b, 0xbd, 0x58, 0x7f, 0x92, 0xbd,
  0xb3, 0x8a, 0x28, 0xbe, 0x81, 0x6b, 0x8f, 0xbd, 0x92, 0x06, 0xba, 0xbd,
  0xdd, 0xee, 0x88, 0xbd, 0xa2, 0xb9, 0x0a, 0xbe, 0x0f, 0x54, 0x96, 0x3d,
  0x68, 0x3a, 0xeb, 0x3d, 0x6a, 0xcd, 0xf6, 0xbc, 0x53, 0xfe, 0x94, 0x3c,
  0x3a, 0x03, 0x8b, 0x3d, 0x32, 0xd3, 0x84, 0xbd, 0xa2, 0x58, 0xaa, 0x3d,
  0x3c, 0x9a, 0xc1, 0xbd, 0xa0, 0x91, 0x66, 0xbd, 0xcb, 0xba, 0x14, 0xbe,
  0x3d, 0x2f, 0x0e, 0xbd, 0x23, 0x44, 0x57, 0x3c, 0x7e, 0xb9, 0x2e, 0xbd,
  0x4b, 0xf0, 0x10, 0x3e, 0xe2, 0xd2, 0x04, 0xbe, 0x51, 0xf8, 0xaf, 0x3d,
  0x70, 0xad, 0x89, 0x3d, 0x34, 0x72, 0xac, 0xbd, 0x4e, 0xaa, 0x00, 0xbe,
  0x7e, 0x9e, 0xa1, 0xbd, 0xb8, 0xd0, 0x96, 0xbd, 0x2a, 0x62, 0x9a, 0x3d,
  0xb3, 0x62, 0xf0, 0xbd, 0xad, 0x64, 0xe3, 0xbd, 0xfa, 0xc9, 0x0b, 0xbe,
  0xb1, 0x9f, 0xbf, 0x3d, 0xbd, 0x59, 0xa2, 0x3d, 0xf0, 0x7d, 0xc0, 0xbd,
  0x29, 0x41, 0x22, 0xbc, 0x70, 0x9e, 0x97, 0x3d, 0x09, 0x71, 0xdf, 0x3d,
  0x51, 0x84, 0xac, 0x3d, 0x7e, 0x40, 0xb2, 0xbd, 0x8f, 0x7b, 0xb1, 0xbd,
  0xb9, 0x6c, 0xf8, 0x3c, 0x14, 0xa5, 0x32, 0xbd, 0xaa, 0x5d, 0xbb, 0x3d,
  0x5e, 0x0f, 0x17, 0xbe, 0x5b, 0x30, 0xc3, 0xbd, 0xd7, 0x7d, 0xd8, 0x3c,
  0x64, 0x95, 0xae, 0x3d, 0xe2, 0xd0, 0xca, 0x3d, 0xd5, 0xc0, 0xac, 0x3d,
  0x48, 0xd9, 0xa7, 0xbb, 0x33, 0x46, 0x9c, 0x3d, 0xe8, 0x34, 0x99, 0xbd,
  0x2f, 0x25, 0x9a, 0x3d, 0x0f, 0xa6, 0x9b, 0x3d, 0xe3, 0x44, 0xd3, 0xbc,
  0x95, 0xfd, 0x38, 0xbd, 0xc3, 0x4a, 0x05, 0x3d, 0x04, 0x73, 0x53, 0x3e,
  0x9e, 0xea, 0xe4, 0x3d, 0x5f, 0x1b, 0x3e, 0x3e, 0xcc, 0xf8, 0x4b, 0x3e,
  0x47, 0xa4, 0xbe, 0x3d, 0x6b, 0x20, 0x33, 0xbd, 0xc8, 0xd7, 0xda, 0x3d,
  0x86, 0xd1, 0xb3, 0xbc, 0xa1, 0x0b, 0x65, 0xbd, 0xc3, 0xb3, 0xf6, 0xbd,
  0x98, 0x8d, 0x12, 0x3e, 0x3f, 0x28, 0xb6, 0x3d, 0x30, 0x7a, 0x2a, 0x3e,
  0x37, 0x64, 0x84, 0x3d, 0x5a, 0x88, 0xf6, 0x3d, 0x0b, 0x9a, 0xa6, 0x3d,
  0x1b, 0xd0, 0xbd, 0xbd, 0x4a, 0x36, 0x0e, 0x3d, 0x1a, 0xcb, 0xa4, 0x3c,
  0x45, 0xb1, 0x40, 0x3e, 0x81, 0x2a, 0x5b, 0xbd, 0x6d, 0x8a, 0x00, 0x3d,
  0x2f, 0xdb, 0x8d, 0x3d, 0x5c, 0x0a, 0x9f, 0xbd, 0xac, 0x47, 0xa9, 0x3d,
  0xd0, 0x8d, 0x00, 0xbe, 0x23, 0x35, 0xb3, 0x3c, 0xc6, 0x37, 0x0d, 0xbe,
  0x1b, 0xb0, 0xbc, 0x3b, 0xf4, 0x7d, 0x42, 0x3e, 0x31, 0xf8, 0x87, 0xbd,
  0x6e, 0x8e, 0x90, 0x3d, 0xa4, 0x7e, 0x02, 0x3e, 0xa0, 0x82, 0xb4, 0x3d,
  0xbe, 0x31, 0x8c, 0xbd, 0xa2, 0xca, 0xc2, 0xbd, 0x5b, 0x81, 0x7f, 0xbc,
  0xa0, 0x40, 0xcf, 0xbd, 0xc2, 0xe1, 0xb2, 0xbd, 0x0d, 0x2d, 0xa1, 0xbd,
  0x75, 0x55, 0xb0, 0xbd, 0xf6, 0x26, 0x12, 0xbe, 0xc0, 0xcf, 0xa3, 0xbc,
  0x3e, 0xd1, 0x1f, 0xbd, 0x1d, 0x83, 0x91, 0x3d, 0xe9, 0x3f, 0x84, 0xbc,
  0x1d, 0x8b, 0x50, 0x3d, 0xb0, 0x7d, 0x51, 0x3e, 0x40, 0xf7, 0x73, 0x3e,
  0x2d, 0x19, 0xc7, 0x3d, 0xae, 0x87, 0x8a, 0xbd, 0x92, 0xa5, 0xb3, 0x3d,
  0x84, 0xc5, 0xa9, 0x3d, 0x51, 0x54, 0x42, 0xbe, 0x1c, 0x1d, 0x08, 0x3e,
  0x3d, 0xd3, 0xca, 0x3c, 0x30, 0xd5, 0x2d, 0x3d, 0x0e, 0xc1, 0x32, 0x3e,
  0xdd, 0x79, 0x44, 0xbd, 0x43, 0x95, 0x5b, 0x3d, 0x17, 0x92, 0x58, 0x3d,
  0xd0, 0xcd, 0xd9, 0x3d, 0xe7, 0x9b, 0xc2, 0xbd, 0xa7, 0x31, 0xee, 0x3d,
  0x0e, 0xfc, 0x18, 0x3e, 0x92, 0xc2, 0x4d, 0xbd, 0xe0, 0x60, 0x89, 0xbc,
  0xf4, 0x97, 0x81, 0xbd, 0x9c, 0xda, 0x1f, 0x3e, 0x37, 0xe7, 0xdc, 0xbd,
  0x22, 0xbb, 0xe0, 0x3c, 0x30, 0x8e, 0x0d, 0xbe, 0x8c, 0xad, 0xf1, 0x3d,
  0x01, 0x4e, 0xdb, 0xbc, 0xfa, 0x75, 0x01, 0x3d, 0x55, 0x83, 0x84, 0xbd,
  0x23, 0xa9, 0x00, 0xbe, 0x8f, 0x51, 0xb5, 0x3d, 0x7b, 0xec, 0xc3, 0x3d,
  0xfe, 0x83, 0xad, 0x3c, 0x7b, 0xef, 0xc3, 0xbc, 0x1f, 0xf6, 0xe6, 0x3d,
  0x0c, 0xd9, 0x6f, 0x3e, 0xc0, 0x4c, 0xc9, 0xbb, 0x83, 0x22, 0x89, 0xbd,
  0xba, 0x39, 0x9b, 0xbd, 0x15, 0x44, 0x0b, 0x3e, 0xce, 0x56, 0x19, 0x3b,
  0x9b, 0x42, 0x1d, 0xbe, 0x1e, 0x13, 0xfa, 0xbd, 0x53, 0xbc, 0xa6, 0xbd,
  0xaa, 0xec, 0x69, 0x3d, 0x5c, 0xfa, 0x22, 0x3e, 0x75, 0xfe, 0xf8, 0x3c,
  0x1a, 0x9c, 0x4b, 0xbe, 0x81, 0x01, 0x11, 0xbe, 0x50, 0x47, 0xb1, 0xbd,
  0xe7, 0xd6, 0xd1, 0x3d, 0x18, 0x16, 0xf3, 0xbd, 0x39, 0x6d, 0x8e, 0x3d,
  0xf5, 0xa4, 0x2a, 0x3e, 0x7e, 0x94, 0x0f, 0xbd, 0x61, 0x82, 0xc6, 0x3d,
  0xd2, 0x1d, 0x2d, 0x3d, 0xc9, 0xcc, 0x81, 0xbc, 0x22, 0x45, 0x9c, 0xbc,
  0x42, 0x0d, 0x1e, 0x3c, 0x0b, 0xb0, 0x0f, 0xbe, 0x89, 0x2b, 0x8a, 0xbd,
  0xfc, 0x2b, 0x0c, 0x3e, 0x09, 0x8e, 0x64, 0x3d, 0xf6, 0x56, 0x46, 0xbc,
  0x61, 0x57, 0xd6, 0x3d, 0x7f, 0x5a, 0x0c, 0xbe, 0x28, 0x64, 0x18, 0xbe,
  0xe4, 0x04, 0x0d, 0x3e, 0x99, 0x18, 0x1e, 0x3e, 0x81, 0x22, 0x02, 0x3e,
  0x15, 0xcf, 0x46, 0x3e, 0x4a, 0x89, 0x5c, 0x3e, 0xcd, 0x10, 0xe6, 0x3d,
  0x77, 0xdc, 0x83, 0xbd, 0x07, 0xe4, 0x41, 0xbe, 0xa1, 0xee, 0x0e, 0xbe,
  0x20, 0x76, 0x18, 0x3e, 0x00, 0x9b, 0x22, 0x3e, 0x64, 0x2c, 0x05, 0x3e,
  0x9a, 0x81, 0x28, 0x3e, 0x9c, 0xb1, 0xef, 0x3d, 0x70, 0xa5, 0xee, 0x3d,
  0x31, 0x5c, 0xa1, 0x3d, 0xe9, 0x5c, 0x93, 0xbc, 0xa3, 0x5b, 0x9d, 0x3d,
  0xed, 0x8f, 0x7b, 0x3d, 0xc4, 0xe4, 0x7b, 0xbd, 0xa2, 0xbf, 0xd4, 0x3d,
  0x13, 0xbd, 0xcf, 0xbd, 0x82, 0x49, 0x4c, 0x3e, 0xfd, 0x64, 0xad, 0x3d,
  0x4b, 0xfe, 0xe4, 0xbd, 0xac, 0xcc, 0x27, 0x3e, 0x31, 0x56, 0x90, 0xbd,
  0xcc, 0x1a, 0x9d, 0x3c, 0xb8, 0x8f, 0x6e, 0x3d, 0x0d, 0xaf, 0x20, 0xbe,
  0x5f, 0xa3, 0x05, 0x3e, 0x88, 0x8e, 0xd2, 0xbd, 0xba, 0x21, 0x84, 0xbd,
  0x67, 0x5d, 0x5c, 0x3d, 0x22, 0x82, 0x42, 0x3d, 0x13, 0xc4, 0x17, 0xbd,
  0xae, 0x20, 0x12, 0x3d, 0xc4, 0xfd, 0xf5, 0x3d, 0x2c, 0x84, 0x23, 0x3d,
  0x57, 0x87, 0x39, 0x3e, 0x36, 0xe2, 0x84, 0xbd, 0x2e, 0x2e, 0x9e, 0xba,
  0x08, 0x72, 0x90, 0x3d, 0x43, 0x87, 0x28, 0x3e, 0xb3, 0x5b, 0xd5, 0x3d,
  0xe2, 0xd7, 0x91, 0xbd, 0x7d, 0xeb, 0x94, 0xbd, 0x44, 0xc7, 0x17, 0xbe,
  0x3d, 0x53, 0x3d, 0x3e, 0xbf, 0xf3, 0xb2, 0xbc, 0xc7, 0x8b, 0x12, 0x3d,
  0x17, 0x12, 0x67, 0xbc, 0x54, 0xe0, 0x92, 0x3d, 0x23, 0xfb, 0xb5, 0xbd,
  0xe8, 0x32, 0x3a, 0x3d, 0xfa, 0x10, 0xdc, 0xbd, 0x76, 0x48, 0x47, 0xbe,
  0xde, 0x60, 0xef, 0x3d, 0x35, 0xa0, 0x2c, 0xbd, 0xdf, 0xc8, 0x36, 0x3e,
  0xb9, 0xaa, 0x8f, 0x3d, 0x65, 0x2c, 0x01, 0x3e, 0x9d, 0x6c, 0x2d, 0x3d,
  0x51, 0x73, 0xcd, 0xbd, 0x9d, 0x07, 0x10, 0x3e, 0x46, 0x05, 0x55, 0xbd,
  0x97, 0xaa, 0x70, 0x3d, 0xf4, 0xee, 0x7b, 0xbd, 0x4d, 0x90, 0x3b, 0xbc,
  0xa7, 0x39, 0x29, 0x3e, 0x83, 0x77, 0x1c, 0xba, 0x4b, 0x69, 0x91, 0xbd,
  0x35, 0x37, 0xfb, 0xbd, 0xa1, 0x69, 0x16, 0x3e, 0x54, 0xb3, 0x1c, 0x3e,
  0xf0, 0x99, 0x1b, 0xbe, 0x35, 0xec, 0xcc, 0x3d, 0x28, 0x0c, 0x3a, 0x3b,
  0x21, 0x35, 0x22, 0xbe, 0x43, 0x93, 0xdf, 0xbc, 0x5b, 0xc0, 0x15, 0xbe,
  0x4d, 0xcc, 0x13, 0xbd, 0xeb, 0x45, 0x23, 0x3e, 0x2c, 0xf5, 0xc0, 0xbc,
  0xaf, 0xa4, 0x04, 0xbe, 0x29, 0xe0, 0xd5, 0xbb, 0x59, 0xd7, 0xe7, 0xbd,
  0x7f, 0x86, 0x73, 0x3d, 0x74, 0x32, 0x14, 0x3e, 0x71, 0x3b, 0x71, 0xbd,
  0x6d, 0x70, 0xea, 0x3d, 0xf1, 0x4d, 0x42, 0xbd, 0xf6, 0xfa, 0x65, 0xbd,
  0xe2, 0xf1, 0x1f, 0x3e, 0xfe, 0x6f, 0x09, 0xbe, 0x55, 0xa5, 0xa8, 0xbd,
  0xca, 0x84, 0xa9, 0xbd, 0x88, 0x41, 0x0a, 0xbc, 0xe7, 0xb2, 0xeb, 0xbd,
  0x55, 0x8a, 0x28, 0x3e, 0x14, 0xbc, 0x32, 0xbd, 0x8b, 0x31, 0x26, 0x3d,
  0x91, 0x25, 0x30, 0x3d, 0xe4, 0x96, 0x12, 0x3e, 0x56, 0x48, 0x3f, 0xbb,
  0x1c, 0x3b, 0x8a, 0xbd, 0x33, 0x49, 0xdf, 0x3d, 0x80, 0x89, 0x73, 0xbd,
  0x9d, 0x50, 0x97, 0xbc, 0xf7, 0xcb, 0x81, 0x3d, 0x15, 0xfd, 0x3d, 0xbd,
  0x4b, 0x77, 0x41, 0xbd, 0x44, 0x74, 0x2b, 0xbd, 0x86, 0x9b, 0xf2, 0xbd,
  0xa5, 0xa3, 0x11, 0x3e, 0x0b, 0xd6, 0x00, 0x3e, 0x47, 0xf7, 0x07, 0x3e,
  0xc4, 0xe7, 0x2d, 0xbb, 0xde, 0x5a, 0xc3, 0x3d, 0xd4, 0x13, 0x96, 0x3d,
  0x99, 0x48, 0xed, 0xbd, 0x5b, 0x90, 0xb0, 0xbd, 0xb5, 0x58, 0x93, 0x3d,
  0x7b, 0x0e, 0x92, 0xbc, 0x8e, 0x42, 0x04, 0xbd, 0xf7, 0x63, 0xf4, 0x3d,
  0x3b, 0x48, 0x14, 0x3e, 0x10, 0x6e, 0x0b, 0x3e, 0x9c, 0xf2, 0x19, 0x3e,
  0x8a, 0x0b, 0x01, 0xbe, 0x2d, 0x1a, 0x1a, 0xbe, 0x95, 0x1a, 0xff, 0xbd,
  0xe4, 0xaa, 0x4e, 0x3d, 0x07, 0xc2, 0xa9, 0xbb, 0x7c, 0xe0, 0x03, 0xbe,
  0x1c, 0x63, 0xdd, 0x3d, 0x88, 0xa5, 0x0d, 0x3c, 0xe0, 0x3f, 0x5a, 0x3d,
  0x97, 0x29, 0x9c, 0xbd, 0x98, 0x7c, 0xa7, 0x3d, 0xbb, 0x37, 0xdf, 0x3c,
  0xdd, 0x05, 0x10, 0xbc, 0x97, 0xa6, 0x24, 0x3e, 0x17, 0x59, 0x13, 0xbc,
  0x45, 0x91, 0xdd, 0xbd, 0x2d, 0x92, 0xce, 0x3d, 0x9b, 0x49, 0xdb, 0xbd,
  0xb6, 0x67, 0xc4, 0xbc, 0x8c, 0xca, 0x4b, 0xbc, 0x34, 0x96, 0x19, 0xbd,
  0xa1, 0x2a, 0x0d, 0x3e, 0x87, 0xc9, 0xc2, 0x3d, 0xfd, 0xcd, 0xef, 0xbd,
  0x1a, 0x3d, 0x0e, 0x3d, 0xdd, 0x9d, 0x1e, 0x3c, 0x5a, 0x03, 0x19, 0x3e,
  0x6f, 0xb3, 0x1e, 0xbe, 0x74, 0x29, 0xdd, 0x3d, 0x37, 0xb2, 0x02, 0xbe,
  0xa0, 0xbf, 0x0a, 0xbe, 0xd7, 0xea, 0x03, 0x3e, 0x39, 0x1f, 0x38, 0x3e,
  0x7f, 0xa6, 0x3e, 0xbd, 0x71, 0x75, 0xd4, 0xbd, 0x39, 0x80, 0x5c, 0xbd,
  0xed, 0xa4, 0x10, 0x3e, 0xbc, 0x30, 0x71, 0x3d, 0x88, 0xce, 0x42, 0xbc,
  0x21, 0x8d, 0xa3, 0x3d, 0x1d, 0x99, 0x18, 0xbc, 0x36, 0x73, 0xb6, 0xbd,
  0x34, 0xa1, 0xce, 0x3d, 0xb7, 0x7e, 0xda, 0x3c, 0x87, 0xd5, 0xa8, 0xbd,
  0xd7, 0xd5, 0x98, 0xbb, 0x70, 0xc5, 0x26, 0x3e, 0x5f, 0x60, 0x64, 0x3d,
  0xdc, 0x51, 0x86, 0x3d, 0x74, 0x21, 0x0b, 0x3e, 0xf9, 0xc9, 0x1d, 0xbe,
  0xf2, 0x9d, 0x7b, 0xbd, 0x19, 0xfc, 0x69, 0xbc, 0x83, 0xf6, 0x07, 0xbd,
  0xb3, 0x50, 0xc6, 0xbd, 0xc4, 0x12, 0x0c, 0xbd, 0x7b, 0x47, 0x06, 0x3e,
  0x86, 0x83, 0xb8, 0x3d, 0x14, 0xc7, 0xfa, 0xbd, 0xa8, 0x07, 0xbd, 0xbd,
  0xbe, 0x73, 0x76, 0xbc, 0x35, 0xdf, 0x07, 0xbd, 0x4b, 0xa5, 0x08, 0xbe,
  0xcb, 0x18, 0x27, 0xbd, 0x5f, 0xda, 0x51, 0x3d, 0x9f, 0xa4, 0x21, 0x3e,
  0x40, 0x2f, 0xf8, 0xbd, 0x49, 0x39, 0xfd, 0x3d, 0x7f, 0x90, 0x02, 0x3e,
  0x32, 0xa7, 0xa5, 0x3d, 0xbf, 0x0f, 0x26, 0xbd, 0xbc, 0x05, 0x0d, 0x3d,
  0x2d, 0xc9, 0x1f, 0xbe, 0x24, 0x5c, 0x3e, 0x3e, 0x24, 0xd2, 0xe5, 0x3d,
  0x6e, 0xe6, 0xa1, 0x3d, 0x84, 0x80, 0x19, 0xbc, 0x7d, 0x90, 0x0b, 0xbe,
  0xd4, 0x4f, 0x1b, 0x3e, 0xd2, 0x81, 0x12, 0x3e, 0xaf, 0x04, 0x22, 0x3e,
  0x6c, 0x49, 0x24, 0x3e, 0xc2, 0x2b, 0x7d, 0xbd, 0xc6, 0x16, 0x9f, 0x3b,
  0x32, 0xd8, 0x95, 0x3d, 0x6b, 0x1d, 0xbc, 0x3d, 0xa9, 0xcb, 0x00, 0xbd,
  0x3a, 0x1a, 0x04, 0x3e, 0x98, 0x8e, 0x20, 0x3e, 0xe6, 0xf7, 0x6f, 0xbd,
  0xbf, 0x3d, 0x0a, 0x3e, 0x85, 0x39, 0xca, 0x3d, 0x22, 0xae, 0xe2, 0x3d,
  0x9a, 0x8a, 0x11, 0x3e, 0x38, 0xfa, 0x76, 0x3d, 0xfc, 0xd1, 0xbd, 0xbd,
  0x3f, 0x5a, 0xe4, 0xbb, 0xa4, 0xd8, 0x26, 0x3e, 0xee, 0xc9, 0xcd, 0x3d,
  0xc7, 0xe3, 0x85, 0x3d, 0x6c, 0x08, 0xd4, 0x3d, 0xbe, 0x21, 0x84, 0xbd,
  0x30, 0x5a, 0xb3, 0xbd, 0xb0, 0xa1, 0x08, 0x3e, 0xa1, 0xc4, 0xdd, 0xbd,
  0xa4, 0xea, 0xb2, 0x3a, 0x17, 0xfc, 0x93, 0x3d, 0xeb, 0xe9, 0x31, 0xbe,
  0x39, 0xf3, 0x19, 0x3e, 0xb8, 0x58, 0x0d, 0x3e, 0x46, 0xca, 0xed, 0xbd,
  0x33, 0xed, 0x54, 0x3c, 0x41, 0x2b, 0x33, 0x3d, 0xb2, 0xe2, 0x13, 0xbd,
  0x67, 0x64, 0xdf, 0x3d, 0x3a, 0xe5, 0xfc, 0x3c, 0x8d, 0xbf, 0x16, 0xbd,
  0xfa, 0xbb, 0xb0, 0x3d, 0xb1, 0x69, 0xcc, 0xbc, 0x4e, 0x95, 0x82, 0x3d,
  0x8c, 0xed, 0xfa, 0x3d, 0x9b, 0xbe, 0x2f, 0x3e, 0xe2, 0x03, 0x27, 0x3e,
  0x76, 0x9e, 0xa6, 0x3d, 0x1d, 0x61, 0x86, 0xbd, 0x38, 0xa0, 0x60, 0x3c,
  0xca, 0x89, 0x1e, 0x3d, 0x0f, 0x2c, 0xbc, 0xbd, 0xa0, 0x23, 0x9f, 0xbd,
  0xcc, 0x83, 0x26, 0x3d, 0x03, 0x28, 0x0c, 0x3e, 0xb9, 0x6f, 0x1c, 0xbe,
  0x74, 0x0e, 0x81, 0xbd, 0xe0, 0xa8, 0x9f, 0x3d, 0x4e, 0x76, 0x7d, 0xbd,
  0xa1, 0xb0, 0x2a, 0xbe, 0xf1, 0xd9, 0x14, 0x3e, 0xa3, 0x41, 0xd9, 0x3d,
  0x8c, 0x9f, 0xc6, 0x3c, 0x13, 0x43, 0x1d, 0x3e, 0xe2, 0xd6, 0x7e, 0xbd,
  0xfc, 0xac, 0x27, 0xbe, 0x43, 0x5e, 0x39, 0x3e, 0xd7, 0x90, 0x4e, 0x3d,
  0x6b, 0x68, 0xac, 0x3d, 0x79, 0xab, 0x02, 0x3e, 0xac, 0xd3, 0xc1, 0x3d,
  0xe1, 0x75, 0x16, 0x3e, 0x8c, 0x81, 0xc2, 0xbd, 0x53, 0x31, 0xe3, 0x3d,
  0xdb, 0x0f, 0x16, 0xbe, 0x56, 0x8d, 0x69, 0xbd, 0xb1, 0x27, 0xfd, 0xbb,
  0x4a, 0x98, 0xec, 0x3d, 0x79, 0x9f, 0x23, 0xbd, 0xf7, 0x87, 0xb2, 0xbd,
  0x61, 0x73, 0x0b, 0x3c, 0xc2, 0x35, 0xbc, 0xbd, 0x41, 0xa9, 0xed, 0x3a,
  0x88, 0xbd, 0xbf, 0x3b, 0xe7, 0xf0, 0x1d, 0x3e, 0x0b, 0x61, 0xcf, 0xbd,
  0x38, 0xe4, 0xd3, 0xbd, 0x09, 0xdf, 0x1c, 0xbc, 0x53, 0x55, 0xd4, 0xbc,
  0x22, 0x74, 0xd5, 0x3d, 0xa8, 0xe3, 0xce, 0x3d, 0x3f, 0xfd, 0x3d, 0x3d,
  0x72, 0xe2, 0x1e, 0x3e, 0xb9, 0x85, 0x24, 0xbe, 0xa4, 0xa2, 0x89, 0xbd,
  0xbd, 0x1e, 0x3b, 0xbb, 0x68, 0xa0, 0x7b, 0x3c, 0xe1, 0x61, 0x35, 0x3e,
  0x86, 0x09, 0x01, 0xbd, 0x49, 0xd4, 0x86, 0x3b, 0xba, 0x53, 0xfe, 0x3d,
  0xb9, 0x95, 0x5e, 0x3d, 0xeb, 0x7d, 0xd0, 0x3d, 0x5d, 0xf5, 0x26, 0xbe,
  0xe3, 0x23, 0x1a, 0x3e, 0xa4, 0xd2, 0x12, 0x3e, 0x88, 0x0f, 0x00, 0xbe,
  0xb7, 0xf9, 0xb0, 0xbb, 0x65, 0xab, 0x74, 0x3d, 0x5f, 0x72, 0x2d, 0x3e,
  0x5a, 0x1c, 0x09, 0xbe, 0x5c, 0x96, 0x95, 0x3d, 0xc0, 0xb7, 0x32, 0x3d,
  0x51, 0xd6, 0x61, 0xbd, 0x2e, 0x42, 0x39, 0x3e, 0x24, 0xec, 0x61, 0x3d,
  0xeb, 0xf7, 0xc2, 0xbd, 0x33, 0x78, 0xc4, 0x3d, 0x77, 0xf6, 0x46, 0xbc,
  0x29, 0x36, 0xcc, 0x3d, 0x0f, 0xd4, 0xae, 0x3d, 0x9d, 0x08, 0xe5, 0x3d,
  0xa5, 0xc1, 0xc1, 0xbd, 0x30, 0x60, 0xdf, 0xbd, 0x15, 0x5b, 0x36, 0x3e,
  0x4c, 0xc4, 0x30, 0xbd, 0x45, 0x74, 0xe3, 0x3d, 0xe3, 0xaf, 0xc8, 0xbd,
  0xb3, 0x7f, 0xf1, 0xbc, 0x03, 0x2e, 0x9d, 0x3d, 0xdd, 0x4c, 0x3c, 0xbc,
  0x89, 0x68, 0xd6, 0x3d, 0xb7, 0x2b, 0xe8, 0x3d, 0x8e, 0xac, 0x08, 0x3e,
  0x58, 0xd7, 0xd8, 0x3d, 0x3b, 0x8a, 0xfd, 0xbd, 0x6e, 0xab, 0xe6, 0x3b,
  0x6e, 0x1c, 0x67, 0xbd, 0x4b, 0x72, 0x2a, 0xbe, 0xed, 0x1c, 0xa8, 0x3b,
  0x34, 0x12, 0xc6, 0xbd, 0xe3, 0x9b, 0xc2, 0x3d, 0xa7, 0xa9, 0xf5, 0xbb,
  0xad, 0xe9, 0x29, 0xbe, 0x64, 0xac, 0x24, 0x3e, 0xaf, 0x5f, 0x26, 0x3e,
  0x79, 0xe3, 0x0a, 0xbe, 0x14, 0xfe, 0xe0, 0x3d, 0xb5, 0x58, 0xac, 0x3c,
  0x17, 0x90, 0x6a, 0x3d, 0xa4, 0xea, 0xc3, 0xbd, 0x96, 0x43, 0x9d, 0xbd,
  0xb5, 0xf2, 0x33, 0xbe, 0xa7, 0x44, 0xfc, 0xbd, 0x71, 0x60, 0xb3, 0xbd,
  0x4d, 0x20, 0xeb, 0xbd, 0xee, 0x27, 0xad, 0x3c, 0xd1, 0x00, 0xcd, 0xbd,
  0x33, 0x6f, 0x67, 0x3c, 0x8d, 0x53, 0x09, 0xbe, 0x5a, 0xce, 0x80, 0x3d,
  0x79, 0x3c, 0x53, 0xbd, 0xbd, 0x7e, 0x1e, 0x3c, 0x95, 0x48, 0xc8, 0x3d,
  0x05, 0x37, 0xa2, 0xbd, 0xc8, 0x34, 0xc0, 0xbd, 0xa8, 0x3b, 0x04, 0xba,
  0x2d, 0x99, 0x14, 0x3e, 0x83, 0xcd, 0xec, 0x3d, 0x77, 0xe8, 0x20, 0xbd,
  0x63, 0xce, 0xba, 0xbd, 0xde, 0x50, 0x94, 0xbd, 0x72, 0x9f, 0xdc, 0x3c,
  0x20, 0x7e, 0x76, 0xbc, 0x28, 0xef, 0xea, 0xbd, 0x66, 0xc9, 0x1f, 0x3e,
  0x8f, 0x3c, 0x0d, 0xbe, 0x47, 0xb4, 0x23, 0xbd, 0x7f, 0xb0, 0xe0, 0xbd,
  0xa9, 0x42, 0x46, 0x3d, 0x01, 0x36, 0xf9, 0xba, 0x1d, 0x99, 0x00, 0xbe,
  0x17, 0x61, 0xae, 0x3d, 0xff, 0xd9, 0x25, 0x3e, 0x44, 0x73, 0xe0, 0xbc,
  0x32, 0x1a, 0x12, 0x3d, 0x07, 0x97, 0x2f, 0xbd, 0xfb, 0x68, 0x01, 0xbe,
  0xf8, 0x8c, 0x23, 0xbe, 0x12, 0x62, 0x8b, 0xbd, 0xc1, 0xeb, 0xce, 0x3c,
  0xcb, 0xe9, 0x89, 0x3d, 0xbd, 0x12, 0xc6, 0x3d, 0xc4, 0x65, 0x9d, 0x3d,
  0x5c, 0x03, 0xd6, 0xbc, 0xea, 0x03, 0x84, 0x3d, 0x0a, 0x28, 0x8d, 0xbd,
  0x81, 0x87, 0x0f, 0xbe, 0xa2, 0xd6, 0xbd, 0x3d, 0xb1, 0x50, 0x0c, 0xbe,
  0x06, 0x0a, 0xb1, 0x3d, 0x9a, 0x65, 0xfb, 0xbd, 0x4f, 0x66, 0xfb, 0xbd,
  0x13, 0xdd, 0x97, 0x3c, 0x7b, 0xcf, 0x89, 0x3d, 0x14, 0xd6, 0xf5, 0x3d,
  0x92, 0x72, 0x6a, 0x3c, 0x5a, 0x7e, 0x36, 0x3d, 0x6d, 0xb6, 0x1a, 0xbe,
  0xee, 0x6f, 0x25, 0x3e, 0x3d, 0xd8, 0xdc, 0x3d, 0xaa, 0x7d, 0x2b, 0x3e,
  0x56, 0x0b, 0x89, 0xbd, 0x43, 0xac, 0x39, 0x3d, 0x8e, 0x01, 0xc7, 0xbd,
  0x8a, 0xe6, 0xde, 0xbd, 0x33, 0xc6, 0x22, 0xbe, 0x78, 0x07, 0x3c, 0x3e,
  0xa1, 0x99, 0x9d, 0xbd, 0xaa, 0x08, 0xaf, 0x3d, 0x26, 0x03, 0x84, 0xbd,
  0x34, 0xf7, 0xaa, 0x3d, 0xed, 0x6f, 0xda, 0x3d, 0xb5, 0x04, 0xa2, 0x3c,
  0xe9, 0xbf, 0x90, 0xbd, 0xd4, 0x62, 0x07, 0xbe, 0x16, 0x76, 0x83, 0xbc,
  0xd1, 0xbf, 0x0a, 0xbe, 0x4a, 0x50, 0x3d, 0xbd, 0xc1, 0xc8, 0x29, 0x3c,
  0x61, 0xa0, 0xf9, 0xbc, 0x22, 0x3b, 0xbc, 0xbd, 0x81, 0xc7, 0x98, 0xbd,
  0x21, 0xc2, 0xa4, 0xbd, 0x4e, 0xaf, 0xb8, 0xbd, 0x6d, 0xe9, 0x4d, 0x3d,
  0xc6, 0x73, 0x91, 0x3d, 0x63, 0x43, 0xbf, 0xbd, 0x3a, 0x3e, 0x69, 0x3d,
  0x8f, 0xbb, 0xc0, 0x3d, 0xd9, 0xbc, 0xf4, 0x3b, 0xe2, 0x19, 0xfd, 0xbd,
  0x9d, 0xa5, 0xff, 0xbc, 0x4c, 0x42, 0x79, 0xbd, 0x15, 0x45, 0xc5, 0x3c,
  0x31, 0x6d, 0xe7, 0x3c, 0x7d, 0xef, 0x0e, 0x3b, 0x4f, 0x50, 0xe9, 0x3d,
  0x92, 0xb5, 0xde, 0x3d, 0x01, 0xa5, 0x0d, 0x3e, 0x77, 0xd2, 0x25, 0xbe,
  0xe9, 0xaa, 0x10, 0x3d, 0x9f, 0xb6, 0xc8, 0x3c, 0xf5, 0xc7, 0xe4, 0xbd,
  0x4e, 0x2c, 0x6d, 0xbd, 0xa6, 0xe7, 0x9a, 0xbb, 0xf2, 0xc6, 0x0f, 0xbe,
  0x1e, 0xaf, 0xea, 0x3d, 0xa3, 0x6f, 0x1b, 0xbe, 0x15, 0xf9, 0x78, 0xbd,
  0x19, 0x01, 0x13, 0xbc, 0x4d, 0x45, 0xe9, 0x3d, 0xec, 0x95, 0x1c, 0xbe,
  0xa7, 0x6d, 0xfc, 0x3d, 0xd5, 0xff, 0x04, 0x3c, 0xe4, 0x56, 0x00, 0xbe,
  0x8c, 0xa5, 0xa7, 0x3b, 0x0e, 0xad, 0xcd, 0x3d, 0xca, 0x5e, 0xb0, 0x3d,
  0x9a, 0x23, 0x14, 0xbd, 0xed, 0x68, 0x8d, 0xbd, 0x7a, 0xd9, 0x4b, 0xbd,
  0x1d, 0x8b, 0x99, 0x3c, 0x70, 0x6f, 0xf5, 0x3d, 0x42, 0xda, 0x03, 0x3e,
  0xd1, 0x05, 0x30, 0xbe, 0xf2, 0xcb, 0xd9, 0x3d, 0x21, 0x39, 0x11, 0xbd,
  0x5e, 0x7f, 0x59, 0xbd, 0xeb, 0xe1, 0x19, 0xbe, 0x73, 0xb0, 0xd5, 0x3c,
  0xd4, 0xb2, 0xcc, 0x3d, 0x75, 0xc3, 0x16, 0x3e, 0x7a, 0x0d, 0x03, 0xbe,
  0x23, 0x43, 0x23, 0xbe, 0x57, 0x1c, 0xfa, 0x3d, 0x24, 0x67, 0xbe, 0xbc,
  0x45, 0xc6, 0x01, 0x3e, 0x01, 0xc1, 0x81, 0x3c, 0x15, 0xd2, 0x1a, 0xbd,
  0x61, 0x21, 0x44, 0x3d, 0x9a, 0x63, 0x0a, 0x3e, 0x9b, 0xa4, 0xb6, 0xbc,
  0x3a, 0x70, 0x4c, 0xbd, 0xc0, 0x4e, 0x05, 0xbc, 0x5e, 0x1c, 0xac, 0x3d,
  0x32, 0xfa, 0x2a, 0xbe, 0x1f, 0x94, 0x7e, 0xbd, 0x7b, 0xab, 0xbf, 0x3d,
  0x81, 0xc4, 0x97, 0xbd, 0x74, 0xb4, 0xd8, 0x3d, 0xd5, 0x42, 0x26, 0xbd,
  0xa6, 0x37, 0xaf, 0x3d, 0xde, 0x2f, 0x08, 0xbe, 0x81, 0x2c, 0xbe, 0xbd,
  0x5c, 0x83, 0x2a, 0x3d, 0x76, 0x86, 0x3b, 0x3e, 0x4d, 0x0a, 0x00, 0x3e,
  0x38, 0x72, 0x10, 0xbe, 0x08, 0x93, 0xc5, 0x3d, 0xfd, 0x60, 0x86, 0xbc,
  0xa3, 0xed, 0x2c, 0xbe, 0x06, 0xeb, 0x2b, 0xbd, 0x9a, 0xc9, 0x56, 0x3b,
  0x35, 0xe1, 0xc7, 0xbd, 0x16, 0x98, 0xa5, 0xbd, 0x3f, 0x8d, 0x92, 0xbd,
  0x59, 0x1d, 0x39, 0xbe, 0x32, 0xd8, 0x5f, 0xbd, 0xfb, 0xba, 0xe8, 0xbd,
  0x8c, 0x0d, 0x02, 0xbe, 0x03, 0xd8, 0xa8, 0xbd, 0x43, 0x6b, 0xfe, 0xbd,
  0x4d, 0x81, 0x03, 0x3e, 0x01, 0x51, 0x18, 0x3e, 0xbe, 0xb2, 0x1e, 0xbe,
  0x9d, 0x0a, 0x9a, 0x3d, 0xce, 0xe6, 0x31, 0x3d, 0x90, 0xf9, 0xf9, 0x3c,
  0x63, 0xd3, 0x72, 0xbd, 0x43, 0x2c, 0xa4, 0xbd, 0x8c, 0x60, 0xaf, 0x3d,
  0x74, 0xa0, 0x62, 0x3c, 0x16, 0x01, 0x6b, 0xbd, 0xea, 0x45, 0x08, 0xbe,
  0xc2, 0x75, 0x5c, 0xbd, 0xf7, 0xb5, 0x67, 0xbd, 0xe2, 0x61, 0x63, 0xbd,
  0x48, 0xa0, 0x61, 0x3d, 0xb2, 0x5b, 0x62, 0xbb, 0xf1, 0xa5, 0x10, 0xbe,
  0x4e, 0x1c, 0x35, 0xbe, 0x3e, 0x40, 0x16, 0xbe, 0x43, 0xa8, 0xae, 0xbd,
  0xbf, 0xb4, 0x01, 0x3e, 0x4d, 0xb5, 0x0e, 0xbe, 0x24, 0xe0, 0x81, 0xbd,
  0xce, 0x15, 0x03, 0xbd, 0x46, 0xcf, 0xa2, 0x3c, 0x86, 0x04, 0xa1, 0x3d,
  0x44, 0x56, 0x84, 0x3d, 0x25, 0x31, 0xa7, 0xbd, 0xb3, 0x2f, 0x8a, 0x3d,
  0x14, 0xa4, 0xf0, 0x3d, 0x3e, 0xa3, 0x90, 0xbd, 0xcd, 0x64, 0xa4, 0x3d,
  0x21, 0xf8, 0x62, 0x3c, 0x18, 0xda, 0x34, 0xbd, 0x76, 0xe2, 0x83, 0x3d,
  0x5b, 0x0a, 0xd8, 0x3c, 0x10, 0xef, 0xa7, 0x3c, 0x8a, 0x48, 0x07, 0xbd,
  0xec, 0x16, 0x18, 0x3c, 0x60, 0x52, 0xdf, 0x3d, 0x8f, 0x7a, 0x01, 0x3d,
  0xa0, 0x59, 0x25, 0x3e, 0xd9, 0xb8, 0x21, 0xbe, 0x6e, 0xdf, 0x26, 0xbe,
  0xa8, 0xd5, 0x3d, 0x3d, 0x63, 0x27, 0x44, 0x3c, 0x71, 0xa5, 0x8d, 0xbd,
  0x54, 0xc4, 0x05, 0xbe, 0x6b, 0xd9, 0x42, 0x3d, 0x9c, 0x6b, 0x1d, 0xbe,
  0x7b, 0xdc, 0xab, 0x3d, 0x1d, 0xcf, 0x17, 0x3e, 0x6f, 0xaa, 0xb1, 0xbd,
  0x12, 0x55, 0x8e, 0xbd, 0xfd, 0xcf, 0x33, 0x3e, 0x0a, 0x8a, 0x2f, 0x3e,
  0x40, 0x80, 0x08, 0xbe, 0x30, 0x97, 0x20, 0xbe, 0x4c, 0x95, 0x97, 0x3d,
  0x52, 0x4f, 0x67, 0x3d, 0x5d, 0xde, 0x9d, 0x3d, 0x26, 0x57, 0xe1, 0xbd,
  0x12, 0x96, 0x28, 0x3e, 0x7c, 0x21, 0x76, 0xbd, 0xc9, 0x09, 0x7c, 0x3d,
  0xd2, 0x45, 0xa6, 0x3c, 0xcd, 0x71, 0x27, 0xbe, 0x1a, 0x3e, 0x1d, 0xbe,
  0x83, 0xe8, 0xa1, 0x3d, 0xa1, 0x50, 0xde, 0xbc, 0xd2, 0xa7, 0x42, 0x3d,
  0x37, 0xc1, 0xe1, 0xbd, 0xa0, 0xb1, 0x21, 0x3e, 0x55, 0x6b, 0x7e, 0xbd,
  0xb1, 0x17, 0x7a, 0x3d, 0x40, 0xf5, 0x40, 0xbd, 0x61, 0xee, 0x19, 0x3e,
  0x65, 0x36, 0xe6, 0xbd, 0x90, 0x80, 0xc0, 0xbd, 0x17, 0x9a, 0x06, 0xbd,
  0xf3, 0x3b, 0x07, 0x3e, 0xca, 0xf3, 0xdd, 0xbd, 0xc0, 0x9d, 0x8e, 0x3d,
  0x38, 0xe4, 0x8e, 0xbd, 0xc8, 0xbf, 0x4f, 0xbd, 0x15, 0x6e, 0x2e, 0x3e,
  0x16, 0xa2, 0x0e, 0xbe, 0xb3, 0x9b, 0xbd, 0xbc, 0x65, 0x80, 0xdc, 0x3d,
  0x5f, 0x1b, 0xcf, 0x3d, 0x8f, 0xec, 0xe4, 0x3d, 0xdd, 0xd6, 0xfe, 0x3c,
  0x3d, 0xb6, 0x9a, 0xbd, 0xa2, 0x63, 0x16, 0x3d, 0x9d, 0xa1, 0x0e, 0xbe,
  0x3e, 0x66, 0xb1, 0xbd, 0x34, 0xde, 0x73, 0xbd, 0x73, 0x35, 0xc1, 0x3d,
  0x6d, 0x87, 0x63, 0x3d, 0xa7, 0xdb, 0x00, 0x3c, 0x80, 0x09, 0xd7, 0x3b,
  0x4a, 0x49, 0x24, 0xbe, 0x8d, 0xb3, 0x14, 0xbe, 0x77, 0x4d, 0x18, 0xbe,
  0x02, 0x6c, 0xbb, 0x3d, 0x95, 0xf9, 0xce, 0x3d, 0xd6, 0xe0, 0x83, 0xbd,
  0xd2, 0x12, 0x4e, 0xbd, 0xc6, 0x9d, 0xce, 0x3d, 0xd3, 0x50, 0x8c, 0xbc,
  0x01, 0xed, 0xfa, 0x3d, 0x7d, 0x0a, 0x17, 0x3e, 0xc6, 0x16, 0xd0, 0xbd,
  0x94, 0xc9, 0x01, 0x3e, 0x39, 0xd9, 0xed, 0xbc, 0xc2, 0xa3, 0x9d, 0xbd,
  0x7b, 0xa2, 0xc5, 0x3d, 0xcb, 0x60, 0x27, 0xbe, 0x43, 0x18, 0x1b, 0x3e,
  0x9d, 0xb8, 0x88, 0xbd, 0x7e, 0x9d, 0xf4, 0x3d, 0x23, 0x1f, 0xd1, 0xbc,
  0x7e, 0x17, 0xb0, 0x3d, 0x78, 0xf8, 0x04, 0x3d, 0x3a, 0x5d, 0x45, 0x3d,
  0xd1, 0x71, 0xe9, 0x3c, 0x8c, 0xda, 0xb6, 0x3d, 0xe4, 0x35, 0xf3, 0xbc,
  0x18, 0x86, 0x88, 0xbd, 0x22, 0xd5, 0xb7, 0xbc, 0xd0, 0xab, 0x0f, 0xbe,
  0x28, 0x68, 0xba, 0x3d, 0xf4, 0x05, 0xcb, 0xbd, 0x24, 0x5c, 0x0c, 0xbe,
  0xe0, 0x25, 0x89, 0xbd, 0xe5, 0x18, 0x9b, 0xbc, 0x16, 0x44, 0x94, 0x3d,
  0x63, 0x6e, 0xb9, 0xbd, 0x4b, 0x90, 0x18, 0xbe, 0x25, 0xb2, 0x25, 0xbe,
  0xdb, 0xbe, 0x6f, 0xbd, 0x7d, 0xd9, 0x05, 0x3e, 0xdc, 0x76, 0x1c, 0xbd,
  0xe1, 0x7f, 0x21, 0x3d, 0x75, 0x65, 0xbe, 0xbd, 0x35, 0x56, 0xa2, 0xbd,
  0x76, 0x22, 0x0b, 0x3e, 0xc3, 0x37, 0x9a, 0xbd, 0x9a, 0x56, 0x92, 0xbd,
  0x1a, 0xf3, 0x05, 0xbe, 0xf0, 0x11, 0x23, 0x3e, 0x8f, 0xe0, 0xc3, 0x3c,
  0xbc, 0x0e, 0x23, 0x3e, 0x5d, 0xcb, 0xd0, 0x3d, 0x7e, 0x99, 0xc8, 0xbd,
  0x0a, 0xef, 0x30, 0xbd, 0x39, 0x6c, 0x1f, 0xbe, 0x4f, 0x56, 0xa4, 0xbd,
  0xe2, 0xd9, 0x9d, 0x3d, 0x15, 0xfb, 0xa5, 0x3d, 0x0d, 0x3e, 0x1a, 0x3e,
  0xf1, 0x2d, 0x15, 0xbe, 0xc5, 0x8a, 0xa3, 0xbc, 0xec, 0x72, 0x6f, 0xbb,
  0x4b, 0xe4, 0x73, 0xbd, 0xe9, 0x84, 0xab, 0x3d, 0xc3, 0x57, 0xbf, 0xbb,
  0x7d, 0x0b, 0x29, 0xbe, 0xb6, 0x36, 0xa4, 0xbd, 0xaf, 0xb6, 0x8c, 0xbc,
  0xba, 0x67, 0xb5, 0x39, 0x91, 0xd5, 0xb0, 0xbd, 0xa7, 0x67, 0x26, 0xbe,
  0x88, 0x76, 0x4e, 0x3d, 0x00, 0xc2, 0x98, 0xbd, 0x57, 0x0c, 0xcb, 0x3c,
  0x5e, 0x4b, 0x15, 0x3e, 0x52, 0xba, 0xa3, 0xbd, 0xa4, 0x4d, 0xa6, 0x3b,
  0xba, 0xcf, 0x61, 0x3d, 0x10, 0x55, 0xb6, 0xbc, 0x63, 0x12, 0x18, 0x3e,
  0x0e, 0x22, 0xcb, 0x3d, 0x7c, 0xa2, 0x30, 0xbe, 0x34, 0x06, 0x00, 0x3e,
  0x1b, 0xc7, 0x15, 0x3e, 0xad, 0x79, 0xaf, 0xbd, 0x09, 0xdc, 0xcb, 0xbd,
  0x55, 0x0a, 0x29, 0x3e, 0x8c, 0x01, 0x00, 0x3e, 0xbe, 0xe4, 0xfc, 0xbd,
  0x6b, 0xa9, 0x6b, 0x3d, 0x90, 0x18, 0x2e, 0x3e, 0xe5, 0xa6, 0x01, 0x3e,
  0xd5, 0xe5, 0x16, 0x3e, 0x2f, 0x0c, 0xcf, 0xba, 0x87, 0x80, 0xbc, 0xbc,
  0x13, 0xb3, 0xc6, 0x3c, 0xb6, 0x23, 0xfe, 0xbc, 0x44, 0x08, 0x04, 0xbe,
  0x6c, 0x49, 0xc5, 0xbd, 0x7f, 0x9a, 0x93, 0xbd, 0xcf, 0x95, 0x95, 0xbc,
  0x47, 0x73, 0xb5, 0xbd, 0x87, 0xf1, 0x86, 0xbc, 0x3a, 0x74, 0xd4, 0xbc,
  0xd1, 0x83, 0x45, 0xbd, 0x4a, 0x2d, 0xdc, 0x3b, 0xea, 0x68, 0x1d, 0xbd,
  0x4d, 0x97, 0xfb, 0x3d, 0x1d, 0x13, 0xa2, 0xbd, 0x51, 0x74, 0xee, 0xbd,
  0x83, 0x3a, 0x40, 0xbd, 0xdf, 0x47, 0x37, 0xbe, 0x15, 0x76, 0xf8, 0x3c,
  0x39, 0x1c, 0x78, 0xbd, 0xf1, 0xa6, 0x2b, 0x3d, 0xd9, 0xf2, 0x33, 0xbd,
  0x50, 0xed, 0xc0, 0x3c, 0xa2, 0x46, 0x29, 0x3e, 0xaf, 0x01, 0x1a, 0xbe,
  0x88, 0x3c, 0x28, 0xbe, 0xca, 0x18, 0x4a, 0xbd, 0xcd, 0xd9, 0x24, 0x3e,
  0xc0, 0xae, 0xcc, 0xbd, 0xe7, 0xab, 0xea, 0xbd, 0x7e, 0xa3, 0x38, 0xbe,
  0x2e, 0xef, 0x0a, 0x3e, 0x90, 0xf7, 0x43, 0xbd, 0x34, 0xd8, 0xbb, 0x3d,
  0x71, 0x5b, 0xab, 0xbd, 0xb0, 0xcb, 0x32, 0xbe, 0x0a, 0x39, 0x47, 0x3d,
  0xe8, 0x21, 0x24, 0xbe, 0xb0, 0xe3, 0xb1, 0x3d, 0x21, 0x5f, 0x80, 0x3c,
  0xfa, 0xe3, 0x29, 0xbe, 0xe0, 0x45, 0xd6, 0x3d, 0xbd, 0x77, 0x29, 0xbe,
  0x1a, 0x35, 0x24, 0xbe, 0x94, 0x80, 0x82, 0xbd, 0x52, 0x36, 0x0e, 0x3e,
  0x4f, 0x35, 0xd9, 0x3d, 0x40, 0x69, 0x32, 0xba, 0x8d, 0x95, 0x30, 0xbe,
  0x40, 0x45, 0xc7, 0xbc, 0x25, 0x67, 0xa2, 0x3d, 0x2e, 0x35, 0xfa, 0x3d,
  0x8e, 0x25, 0xca, 0xbc, 0xe5, 0x00, 0xaf, 0x3d, 0x36, 0x32, 0x8d, 0x3d,
  0xf9, 0xbe, 0x09, 0xbe, 0x2c, 0x29, 0x0c, 0x3e, 0x63, 0x14, 0xb6, 0x3d,
  0x31, 0x9e, 0x03, 0x3d, 0x06, 0xc4, 0x81, 0xbc, 0xcb, 0x51, 0x87, 0xbb,
  0x0c, 0x41, 0x03, 0xbd, 0xb8, 0xb8, 0xc2, 0xbd, 0xd9, 0x2a, 0x0b, 0xbd,
  0xa7, 0x23, 0x3c, 0x3d, 0xd5, 0x51, 0xb0, 0xbb, 0xb0, 0xa3, 0x1b, 0xbe,
  0x3f, 0x38, 0xc8, 0xbd, 0xcc, 0x6e, 0x22, 0xbe, 0xf4, 0xad, 0xe8, 0xbd,
  0xf5, 0xa3, 0x8b, 0x3d, 0x0a, 0x8c, 0xd8, 0x3d, 0xcc, 0x81, 0x8e, 0x3d,
  0x02, 0x4f, 0x18, 0xbe, 0xc4, 0x0a, 0xf4, 0xbc, 0xbb, 0xa7, 0xc0, 0xbd,
  0x3f, 0x7b, 0x1c, 0xbe, 0x43, 0x41, 0xab, 0xbd, 0xfa, 0x5b, 0xfd, 0x3d,
  0x62, 0xe5, 0xbe, 0x3d, 0x1a, 0x2b, 0x55, 0x3d, 0xe0, 0xd5, 0x4c, 0xbd,
  0x83, 0xb4, 0x42, 0x3c, 0x77, 0xf4, 0x22, 0x3e, 0xf0, 0xc3, 0x15, 0x3e,
  0x9e, 0x34, 0x3c, 0x3c, 0x82, 0x43, 0x27, 0xbd, 0x2c, 0x19, 0x69, 0xbc,
  0x45, 0x56, 0xc1, 0x3d, 0xe9, 0xbc, 0xeb, 0x3c, 0x95, 0xb7, 0x0a, 0x3d,
  0xed, 0x56, 0xc0, 0xbc, 0x36, 0xca, 0x88, 0xbd, 0xab, 0xc4, 0x17, 0xbe,
  0xa5, 0x16, 0x78, 0x3d, 0x42, 0x9a, 0x48, 0x3d, 0x73, 0x6b, 0x27, 0x3e,
  0x80, 0xc6, 0xe3, 0xbd, 0x6a, 0xfa, 0x0f, 0xbe, 0x33, 0x84, 0x7b, 0x3d,
  0xa2, 0xec, 0x41, 0x3d, 0x07, 0x1c, 0xa0, 0x3d, 0x59, 0xa6, 0xdb, 0x3d,
  0x85, 0xbb, 0x1e, 0x3e, 0xdd, 0x53, 0x51, 0x3d, 0x32, 0xeb, 0x14, 0x3e,
  0xde, 0x1b, 0xfa, 0x3d, 0xbc, 0x6f, 0x2f, 0xbd, 0x60, 0x91, 0x10, 0x3d,
  0x71, 0x3d, 0x4c, 0xbd, 0xee, 0xc8, 0x45, 0x3c, 0x83, 0x2f, 0x1e, 0xbe,
  0x30, 0x65, 0x9d, 0xbc, 0xe6, 0x0c, 0x70, 0x3c, 0xef, 0x5b, 0x9f, 0xbd,
  0x27, 0xc3, 0xb3, 0xbd, 0x61, 0xf9, 0x91, 0xbd, 0x64, 0x23, 0x58, 0xbd,
  0xa3, 0x87, 0x1f, 0x3e, 0x63, 0x54, 0x52, 0xbd, 0xca, 0xed, 0x8e, 0xbd,
  0xd6, 0xfa, 0x96, 0xbc, 0x9e, 0x7e, 0x89, 0x3d, 0xdb, 0xb8, 0x78, 0x3b,
  0x22, 0xa0, 0x1d, 0x3e, 0x40, 0xff, 0xa1, 0xbd, 0x48, 0x8d, 0x14, 0xbe,
  0xe6, 0x3e, 0xdb, 0x3d, 0xd6, 0xc9, 0x1d, 0xbd, 0x5d, 0x52, 0xe3, 0x3c,
  0x34, 0xe9, 0x17, 0xbe, 0x62, 0x4b, 0x07, 0x3e, 0xfe, 0x78, 0x27, 0x3d,
  0xb8, 0xae, 0xa3, 0x3d, 0x30, 0xdb, 0x1c, 0x3e, 0x12, 0xb3, 0x90, 0x3d,
  0x12, 0xb5, 0x25, 0x3e, 0x36, 0x39, 0x60, 0x3d, 0x54, 0x2f, 0x34, 0xbe,
  0x49, 0xe2, 0x88, 0x3d, 0x10, 0x80, 0xb7, 0x3d, 0x50, 0x86, 0x39, 0x3b,
  0x9b, 0xb2, 0x05, 0xbe, 0x31, 0xe3, 0x5b, 0x3d, 0x63, 0x96, 0x6b, 0xbd,
  0x14, 0xf0, 0x25, 0xbe, 0xf5, 0xf8, 0x02, 0x3e, 0xc4, 0x12, 0x08, 0x3e,
  0xbb, 0x32, 0xc8, 0x3d, 0x34, 0x5f, 0xbb, 0xbd, 0x42, 0xa6, 0xb4, 0xbd,
  0x58, 0xb9, 0x06, 0x3e, 0x82, 0x45, 0xd2, 0x3d, 0x7c, 0xc7, 0x23, 0x3e,
  0x97, 0xa6, 0xed, 0x3d, 0x9c, 0xea, 0x24, 0x3e, 0x4e, 0x44, 0xb8, 0x3d,
  0xeb, 0x01, 0x15, 0xbe, 0x60, 0xa3, 0x87, 0xbc, 0xa3, 0xe0, 0x70, 0x3d,
  0x19, 0x8d, 0x8f, 0x3c, 0xd4, 0xc8, 0x2c, 0xbe, 0x57, 0xef, 0x58, 0x3d,
  0x6a, 0x37, 0x88, 0x3d, 0x87, 0xa9, 0x36, 0xbc, 0x43, 0x6d, 0xd8, 0x3d,
  0x45, 0x1a, 0xb8, 0xbd, 0x83, 0xac, 0xbd, 0xbd, 0x03, 0xe7, 0x16, 0xbe,
  0xba, 0x15, 0x25, 0x3d, 0x75, 0x6b, 0xea, 0xbd, 0x04, 0xd4, 0x28, 0xbe,
  0x39, 0x52, 0x3c, 0x3d, 0x14, 0x4e, 0x9f, 0x3c, 0xda, 0x9e, 0x03, 0x3e,
  0xd1, 0x62, 0x4b, 0x3d, 0x9f, 0x98, 0x25, 0xbe, 0x6c, 0x64, 0x1f, 0xbd,
  0x47, 0x59, 0x12, 0x3e, 0xa0, 0x33, 0x85, 0x3d, 0x53, 0x69, 0x88, 0xbc,
  0xe8, 0x3f, 0x8b, 0xbd, 0x11, 0x6a, 0x73, 0x3d, 0x24, 0xd4, 0xf1, 0xbd,
  0xc6, 0x1d, 0xee, 0xbd, 0xa6, 0xa1, 0x26, 0x3e, 0x87, 0x87, 0xd0, 0x3d,
  0x03, 0xa1, 0xac, 0xbd, 0x4c, 0xc5, 0xc3, 0x3d, 0x10, 0x43, 0x20, 0x3e,
  0x01, 0xb7, 0x26, 0xbe, 0xb6, 0xf2, 0x1e, 0xbe, 0x8b, 0x52, 0x1b, 0xbd,
  0x4b, 0x33, 0x33, 0xbd, 0x6e, 0xf6, 0x24, 0x3e, 0xde, 0xf0, 0x47, 0x3d,
  0x1b, 0xd2, 0xa3, 0x3d, 0x08, 0x64, 0x0c, 0xbe, 0x1d, 0xea, 0xdd, 0xbd,
  0xe4, 0xc3, 0x1d, 0x3e, 0xcd, 0x8b, 0x44, 0xbd, 0xca, 0x66, 0x82, 0xbd,
  0x5a, 0x1c, 0xc1, 0x3d, 0xea, 0xe7, 0xa4, 0x3c, 0x07, 0xce, 0x5a, 0x3c,
  0x6f, 0x28, 0x7b, 0x3d, 0x65, 0x14, 0x31, 0xbc, 0x05, 0x69, 0xda, 0xbd,
  0x0f, 0x87, 0xda, 0xbd, 0x72, 0x7a, 0x3a, 0xbe, 0x92, 0xf5, 0xf7, 0xbd,
  0x42, 0x9a, 0x04, 0xbd, 0xa3, 0xc6, 0xb6, 0xbc, 0xe2, 0x6d, 0x5a, 0x3b,
  0xfe, 0x9b, 0x1a, 0xbb, 0x42, 0xfb, 0xbe, 0x3d, 0x67, 0x20, 0x23, 0x3e,
  0x74, 0x8a, 0x07, 0x3e, 0xaa, 0xd2, 0x20, 0xbe, 0x7a, 0xba, 0x31, 0xbd,
  0xe5, 0x77, 0x00, 0xbe, 0x5a, 0x9c, 0x03, 0xbd, 0xe6, 0xeb, 0xa0, 0x3d,
  0xc8, 0x23, 0xf6, 0x3c, 0xe2, 0xa7, 0x39, 0xbe, 0x41, 0xef, 0x24, 0x3d,
  0x91, 0xaa, 0x06, 0x3e, 0x89, 0x03, 0x8e, 0x3c, 0x6e, 0x9e, 0x3b, 0xbe,
  0x9d, 0x25, 0xb0, 0x3d, 0x72, 0xed, 0x95, 0xbc, 0x35, 0x06, 0x06, 0x3b,
  0x48, 0x04, 0x17, 0x3e, 0xe3, 0x91, 0x54, 0xbd, 0x07, 0x00, 0x3b, 0xbe,
  0x39, 0xd1, 0xb4, 0xbd, 0xc3, 0x99, 0x3d, 0x3c, 0x58, 0x36, 0x23, 0xbe,
  0xbc, 0xff, 0x16, 0xbe, 0xbb, 0x3a, 0x1f, 0x3e, 0x6d, 0xee, 0x89, 0xbd,
  0x05, 0xe5, 0x0f, 0x3d, 0x88, 0x0b, 0x03, 0x3e, 0xea, 0x96, 0xbb, 0xbd,
  0x85, 0x9e, 0x8e, 0x3b, 0xfb, 0x21, 0x8b, 0x3c, 0xd5, 0x0f, 0x9b, 0x3d,
  0x3e, 0xa0, 0x19, 0x3d, 0xbd, 0xe0, 0x4b, 0xbd, 0x2c, 0x93, 0xcd, 0xbc,
  0xdb, 0xf5, 0x30, 0xbd, 0xe3, 0xcc, 0x5e, 0x3c, 0x8c, 0x1a, 0xa8, 0xbc,
  0x88, 0x69, 0xcb, 0xbd, 0x49, 0xf0, 0x0e, 0x3e, 0xcf, 0xab, 0x1c, 0xbe,
  0x71, 0x7d, 0x40, 0xbd, 0x79, 0xa3, 0xc4, 0x3d, 0xb3, 0xd8, 0x0c, 0xbe,
  0xf4, 0x94, 0x21, 0x3e, 0x20, 0xb9, 0x6e, 0xbc, 0x96, 0x82, 0xe9, 0xbd,
  0x16, 0x43, 0x21, 0x3e, 0x89, 0xdc, 0xd8, 0x3d, 0x2b, 0x29, 0xbc, 0x3d,
  0xe6, 0x22, 0xd4, 0x3d, 0x0f, 0xf0, 0xc8, 0x3c, 0x3c, 0x99, 0x03, 0x3d,
  0x14, 0xde, 0x3a, 0x3d, 0x08, 0xb3, 0x16, 0xbe, 0xec, 0x00, 0x1b, 0xbe,
  0xbf, 0xc5, 0x15, 0x3e, 0xfe, 0x8c, 0x12, 0x3d, 0x3d, 0xe6, 0x0d, 0xbe,
  0x01, 0x09, 0x02, 0x3d, 0xac, 0x6b, 0x06, 0xbe, 0xe4, 0x47, 0xdd, 0x3d,
  0xa8, 0xa0, 0xfc, 0xbd, 0x9b, 0x43, 0x0d, 0x3e, 0x11, 0xd9, 0x2d, 0x3e,
  0x50, 0xd3, 0x16, 0x3e, 0x92, 0xd0, 0xe3, 0x3d, 0xf1, 0x56, 0x1b, 0x3e,
  0xc3, 0xd0, 0x9b, 0x3c, 0xf1, 0x79, 0xf2, 0xbd, 0x88, 0x05, 0x96, 0xbd,
  0x30, 0xce, 0xf6, 0x3d, 0x92, 0x9d, 0x94, 0xbd, 0xba, 0x7a, 0x25, 0x3e,
  0xa5, 0xb5, 0x1c, 0x3e, 0x31, 0xf0, 0xdc, 0xbd, 0xfd, 0x08, 0x77, 0xbc,
  0x06, 0x55, 0x3d, 0xbd, 0x03, 0x61, 0x8c, 0x3d, 0x98, 0xd1, 0x0f, 0xbe,
  0xf9, 0x6f, 0x0c, 0x3e, 0x71, 0x0f, 0x16, 0xbd, 0xdf, 0x4e, 0xf5, 0x3d,
  0x5e, 0x52, 0x02, 0x3e, 0x93, 0xa5, 0x1b, 0x3e, 0x8e, 0x7c, 0x50, 0xbd,
  0xb9, 0xf1, 0x78, 0xbd, 0xd0, 0x0f, 0x92, 0xbd, 0x0d, 0x9d, 0x9e, 0xbc,
  0x0f, 0xe8, 0x2c, 0x3d, 0x92, 0x0b, 0x08, 0x3e, 0xc1, 0x86, 0xfb, 0x3d,
  0x34, 0xd1, 0x2c, 0xbe, 0x16, 0x1d, 0x16, 0xbe, 0xcc, 0xda, 0xa8, 0x3d,
  0x40, 0xb3, 0x04, 0x3e, 0x8b, 0xcd, 0x12, 0xbe, 0x84, 0xee, 0x74, 0xbd,
  0x83, 0x6d, 0xe8, 0x3d, 0x1b, 0xa9, 0x1d, 0xbe, 0xf9, 0xb2, 0xfa, 0x3d,
  0xdd, 0x21, 0x31, 0xbe, 0x94, 0x3a, 0x8c, 0xbd, 0x2d, 0x30, 0x2b, 0xbe,
  0x8f, 0x89, 0xf7, 0x3d, 0x65, 0x67, 0x3e, 0xbc, 0x4c, 0xf4, 0x1e, 0x3e,
  0x01, 0x59, 0x11, 0xbe, 0x9b, 0x67, 0x98, 0xbd, 0xbb, 0x2f, 0xe7, 0xbd,
  0xe1, 0x15, 0x1c, 0x3c, 0xb2, 0x63, 0x00, 0xbe, 0xe2, 0x7d, 0x0c, 0xbe,
  0x50, 0xd1, 0x09, 0x3e, 0xdf, 0xd6, 0x2a, 0x3e, 0x08, 0x7a, 0xbb, 0xbd,
  0x54, 0x98, 0xe5, 0x3d, 0x33, 0x74, 0xf6, 0xbd, 0x7f, 0x9f, 0xd8, 0x3d,
  0xba, 0xc1, 0xc0, 0x3d, 0x2e, 0x3d, 0x64, 0x3d, 0x49, 0xd4, 0x2f, 0x3e,
  0x35, 0xe5, 0x18, 0x3e, 0x2e, 0x9e, 0xbe, 0xbd, 0x71, 0x45, 0xab, 0x3c,
  0xaa, 0x64, 0xfe, 0xbc, 0xae, 0x68, 0xfe, 0xbc, 0x53, 0xf6, 0xb4, 0x3d,
  0x88, 0xa1, 0x4b, 0xbd, 0x34, 0x81, 0x9e, 0xbd, 0xd9, 0x5d, 0x00, 0x3e,
  0x13, 0x39, 0x13, 0x3e, 0xfd, 0x0b, 0x08, 0x3e, 0x32, 0xba, 0x13, 0x3d,
  0xdc, 0x18, 0xbf, 0x3d, 0xba, 0x99, 0xba, 0x3d, 0x19, 0x3e, 0x1b, 0x3d,
  0x51, 0x0c, 0xc3, 0xbd, 0xa2, 0x40, 0x33, 0x3e, 0x3f, 0x8e, 0x88, 0x3d,
  0x48, 0x47, 0xaa, 0xbc, 0x19, 0x3e, 0x9c, 0x3d, 0xa8, 0xa3, 0xa0, 0x3d,
  0x0f, 0xea, 0x36, 0x3e, 0x76, 0x2e, 0x80, 0xbd, 0x2e, 0x40, 0xc1, 0xbd,
  0xa0, 0x9e, 0xf9, 0xbd, 0x77, 0xd1, 0x73, 0xbd, 0x95, 0x10, 0x93, 0xbb,
  0xbf, 0xd5, 0xc6, 0xbd, 0xf8, 0x1c, 0xa7, 0xbd, 0x8f, 0x0c, 0x7f, 0x3d,
  0x83, 0xed, 0x32, 0x3e, 0x5a, 0x10, 0x2e, 0x3e, 0x39, 0x14, 0x1f, 0x3e,
  0xc3, 0x04, 0xb8, 0x3d, 0x6e, 0x9c, 0xb2, 0xbd, 0x2a, 0xd4, 0xb3, 0x3d,
  0x84, 0xb9, 0x25, 0x3e, 0xaf, 0x01, 0x34, 0xbd, 0x7e, 0xb5, 0x25, 0x3e,
  0x1d, 0xd7, 0x1c, 0xbe, 0x5d, 0xbb, 0x12, 0x3e, 0x67, 0x3e, 0xf9, 0x3c,
  0xbb, 0xaf, 0x38, 0x3d, 0x6b, 0x17, 0xc9, 0x3d, 0x43, 0x36, 0x96, 0x3d,
  0xff, 0xab, 0xc4, 0xbc, 0x3a, 0x9b, 0xae, 0xbc, 0xa9, 0xf1, 0xa3, 0x3d,
  0x78, 0x8b, 0x5b, 0x3d, 0x4e, 0xa0, 0x00, 0x3e, 0x4f, 0xeb, 0x85, 0x3d,
  0x21, 0xd0, 0xa5, 0xbd, 0x77, 0xd9, 0xb4, 0xbd, 0x92, 0x17, 0x16, 0xbe,
  0xa6, 0xba, 0x1d, 0xba, 0xf6, 0x0a, 0x38, 0xbb, 0x16, 0x23, 0x89, 0xbd,
  0xd3, 0x2d, 0x8e, 0xbc, 0x3f, 0x97, 0x7c, 0x3d, 0x37, 0x51, 0xb6, 0x3c,
  0xcc, 0xc3, 0x5e, 0x3d, 0x92, 0x9c, 0x19, 0xbe, 0x00, 0x7a, 0xe1, 0x3d,
  0x9a, 0x42, 0xa1, 0xbd, 0x16, 0xe5, 0xfa, 0xbd, 0xad, 0x3b, 0xe3, 0xbd,
  0x77, 0xff, 0x82, 0xbd, 0x74, 0x05, 0x6d, 0xbd, 0xaf, 0x96, 0x09, 0x3d,
  0xf6, 0xef, 0x06, 0x3e, 0xab, 0x11, 0x1f, 0xbe, 0x26, 0x13, 0x00, 0x3e,
  0xd8, 0xb5, 0x06, 0x3e, 0x72, 0x2c, 0xa1, 0xbd, 0xc8, 0x14, 0x06, 0x3d,
  0x0c, 0x96, 0xfc, 0xbd, 0x8b, 0x19, 0x0b, 0xbe, 0x3a, 0x81, 0xfb, 0xbd,
  0xa3, 0x8f, 0xfe, 0xbd, 0xa9, 0xf7, 0x28, 0xbd, 0x7e, 0x14, 0x09, 0x3e,
  0xf6, 0x09, 0x1c, 0x3e, 0x47, 0x63, 0xd3, 0x3d, 0xca, 0xc3, 0x76, 0x3d,
  0xf2, 0xed, 0x4e, 0xbc, 0x5e, 0x46, 0x00, 0xbe, 0x0b, 0x63, 0x62, 0xbd,
  0x08, 0xf2, 0x53, 0xbd, 0x08, 0x44, 0x1a, 0xbe, 0x2a, 0xe5, 0xf8, 0xbd,
  0x18, 0x87, 0x03, 0x3e, 0xe6, 0xf2, 0x9e, 0xbc, 0xc3, 0xcd, 0xab, 0xbd,
  0xbb, 0x2f, 0xe2, 0x3d, 0x23, 0xf8, 0x9c, 0xbd, 0xe8, 0x0b, 0x18, 0xbd,
  0xeb, 0xf2, 0x1a, 0xbe, 0x6e, 0x00, 0xfd, 0xbc, 0xd1, 0x12, 0xcf, 0x3d,
  0x8a, 0xeb, 0x1b, 0xbe, 0x65, 0x4a, 0x54, 0xbd, 0xf7, 0xb4, 0x24, 0x3e,
  0x95, 0x26, 0xf2, 0xbd, 0x50, 0x46, 0x1c, 0xbe, 0xf7, 0x1c, 0xf5, 0x3d,
  0xc6, 0x4a, 0x61, 0xbd, 0x7e, 0x17, 0xef, 0x3c, 0xfc, 0xbc, 0x7b, 0xbc,
  0x51, 0xf5, 0xbd, 0x3d, 0x36, 0x40, 0x91, 0x3d, 0xa5, 0x01, 0x0e, 0x3e,
  0x93, 0x75, 0x03, 0x3c, 0x1a, 0xf1, 0x83, 0x3d, 0xe2, 0xa4, 0xcf, 0x3d,
  0x1e, 0xc8, 0x83, 0x3d, 0xee, 0xf7, 0xd9, 0xbc, 0x9d, 0x56, 0x02, 0x3d,
  0x32, 0xc3, 0xcd, 0x3d, 0x5b, 0x73, 0x6b, 0xbd, 0xb9, 0x94, 0x30, 0xbe,
  0x10, 0x1e, 0x26, 0x3d, 0xbb, 0xb2, 0x9d, 0xbd, 0x46, 0x91, 0x1d, 0x3e,
  0xad, 0x7b, 0xfe, 0x3d, 0xef, 0x20, 0x0a, 0xbe, 0x85, 0x70, 0x93, 0x3d,
  0xa7, 0x38, 0xb7, 0x3d, 0xb3, 0x6b, 0x78, 0x3c, 0x20, 0x17, 0x87, 0x3c,
  0x8e, 0x83, 0x1c, 0xbe, 0x26, 0xdc, 0x06, 0xbe, 0xb0, 0x93, 0xae, 0xbd,
  0x51, 0x89, 0x64, 0x3d, 0x42, 0xd1, 0x04, 0xbe, 0x88, 0x33, 0xb1, 0x3c,
  0x57, 0xcd, 0x8d, 0x3d, 0x56, 0x91, 0x22, 0xbe, 0xa4, 0x37, 0x65, 0x3d,
  0xf0, 0x9a, 0x0c, 0x3c, 0xd0, 0x32, 0x57, 0xbd, 0xf0, 0xa8, 0x23, 0x3e,
  0x54, 0x7e, 0x16, 0xbe, 0x59, 0xd3, 0xf5, 0x3d, 0x7b, 0xa2, 0x76, 0x3d,
  0x53, 0x1d, 0x00, 0xbe, 0xa3, 0xaf, 0x1e, 0x3e, 0xae, 0x68, 0x02, 0xbe,
  0x80, 0x48, 0xb4, 0x3d, 0xbc, 0x14, 0x43, 0x3d, 0x39, 0x02, 0xca, 0xbd,
  0x6e, 0xfc, 0x99, 0xbc, 0x26, 0x8a, 0x15, 0xbe, 0xae, 0xaf, 0x14, 0x3e,
  0xb2, 0xee, 0xc9, 0xbd, 0x75, 0xfb, 0xd5, 0xbd, 0xef, 0x5a, 0xd0, 0xbd,
  0x6f, 0x60, 0xae, 0x3d, 0xdc, 0x75, 0xd0, 0xbd, 0xb5, 0x4a, 0x0e, 0xbe,
  0xc1, 0xb6, 0xa6, 0x3d, 0x3d, 0x88, 0x9a, 0xbd, 0xe5, 0xd5, 0x26, 0xbe,
  0x94, 0x73, 0x23, 0xbe, 0x09, 0xf3, 0xac, 0xbd, 0xf0, 0x2c, 0x11, 0x3b,
  0xde, 0x57, 0x02, 0x3d, 0x96, 0x42, 0xbb, 0xbd, 0x2a, 0x84, 0xbf, 0x3c,
  0x77, 0x61, 0xcd, 0xbd, 0x07, 0x8d, 0x1a, 0x3e, 0x2f, 0xad, 0xf0, 0x3c,
  0xe6, 0xc2, 0xa3, 0xbd, 0x6b, 0x6a, 0x15, 0x3d, 0x62, 0x44, 0x15, 0x3e,
  0x4c, 0x52, 0x75, 0x3c, 0x17, 0x5a, 0x21, 0x3e, 0xb8, 0x3b, 0x23, 0xbd,
  0x20, 0x8b, 0xf2, 0x3c, 0x6d, 0xa3, 0xee, 0xbd, 0xce, 0xb6, 0xca, 0xbd,
  0xe1, 0x8b, 0x4c, 0xbd, 0x7f, 0x50, 0x21, 0x3e, 0xfe, 0x75, 0xd4, 0xbd,
  0x7b, 0xe6, 0x8f, 0x3d, 0xf4, 0xfb, 0xd0, 0xbd, 0x74, 0xd0, 0x8d, 0xbd,
  0x1a, 0xe0, 0x49, 0x3d, 0x31, 0xfb, 0xa0, 0x3d, 0x99, 0xc6, 0x45, 0xbd,
  0x49, 0x84, 0x2b, 0x3e, 0x67, 0x07, 0x10, 0x3e, 0x1d, 0x1b, 0x16, 0x3e,
  0x3b, 0x35, 0x0c, 0x3d, 0xe4, 0x73, 0x9a, 0x3d, 0x88, 0x99, 0x06, 0x3e,
  0x17, 0x84, 0x04, 0x3e, 0x16, 0x5b, 0x91, 0x3d, 0xbb, 0xc0, 0x04, 0x3e,
  0x71, 0x98, 0x71, 0x3d, 0xc0, 0xe0, 0x4d, 0xbd, 0x97, 0xe5, 0xfa, 0xbd,
  0xe2, 0xa2, 0xdf, 0xbd, 0x5f, 0x24, 0x26, 0x3e, 0x14, 0x68, 0x8b, 0xbd,
  0x5f, 0x87, 0x2e, 0xbe, 0xb5, 0x24, 0x8b, 0xbd, 0x71, 0x5a, 0x0e, 0xbe,
  0xee, 0x97, 0xee, 0xbd, 0xd5, 0xe8, 0x15, 0x3e, 0x61, 0xab, 0x1f, 0xbe,
  0x9e, 0x08, 0x99, 0xbd, 0xd3, 0x4c, 0x66, 0xbd, 0x2c, 0x7f, 0x07, 0xbe,
  0x35, 0xf1, 0x2f, 0x3c, 0x22, 0x9f, 0xcb, 0xbd, 0xb2, 0xd3, 0xa2, 0xbc,
  0xbf, 0x37, 0xd9, 0xbd, 0x6a, 0xd2, 0x29, 0x3e, 0x55, 0xcd, 0xaa, 0x3d,
  0xf3, 0x8a, 0x9c, 0xbd, 0x31, 0x99, 0xfd, 0x3d, 0xd3, 0x95, 0x04, 0x3e,
  0x45, 0x17, 0x25, 0x3e, 0xd6, 0x8b, 0x01, 0xbe, 0xa0, 0xc2, 0x25, 0x3d,
  0x19, 0xc7, 0xc9, 0x3d, 0xb8, 0xc8, 0x1b, 0xbe, 0x47, 0xaa, 0xa8, 0x3c,
  0x47, 0xa5, 0x28, 0x3d, 0xdf, 0x8a, 0x08, 0xbe, 0xce, 0xdf, 0x88, 0x3c,
  0x74, 0x10, 0xab, 0xbc, 0xf5, 0x66, 0xfc, 0xbd, 0x28, 0x71, 0x0a, 0x3e,
  0x76, 0xea, 0x0a, 0xbe, 0xac, 0x5d, 0xc4, 0x3d, 0x85, 0x16, 0x03, 0xbe,
  0xe0, 0x70, 0x80, 0x3d, 0x5a, 0x41, 0x10, 0x3e, 0x4e, 0x88, 0x0b, 0x3e,
  0x20, 0xb7, 0x28, 0xbe, 0x4a, 0x12, 0x83, 0x3d, 0x34, 0x99, 0x9d, 0xbd,
  0xd7, 0xf2, 0xbd, 0xbd, 0xfb, 0x7e, 0x2b, 0x3d, 0x11, 0x2e, 0x70, 0x3d,
  0x55, 0x2c, 0x35, 0xbc, 0x5c, 0x45, 0xce, 0x3d, 0xf4, 0xb6, 0xbf, 0x3d,
  0x36, 0xd0, 0x47, 0xbd, 0x81, 0x93, 0xe3, 0x3d, 0xd6, 0x54, 0xd1, 0x3d,
  0xb5, 0x16, 0xb9, 0xbd, 0xd6, 0xbc, 0xdb, 0xbd, 0x7c, 0x39, 0x0c, 0x3e,
  0x2a, 0xe3, 0x96, 0xbc, 0xde, 0x44, 0xbd, 0x3d, 0x66, 0x0d, 0x5f, 0x3d,
  0xe7, 0xe1, 0x3c, 0xbd, 0x3d, 0x01, 0x93, 0x3d, 0x08, 0xa2, 0xfc, 0x3d,
  0xdc, 0xa6, 0x9b, 0x3d, 0x04, 0x51, 0x2c, 0x3d, 0x5e, 0x78, 0x9d, 0x36,
  0xde, 0x52, 0x10, 0x3c, 0x4b, 0xd6, 0x0f, 0xbe, 0x6b, 0x75, 0x22, 0x3e,
  0xb6, 0x95, 0x22, 0x3e, 0x3e, 0xd9, 0x15, 0xbd, 0xd7, 0x8d, 0x0a, 0x3e,
  0x1f, 0xda, 0x88, 0xbc, 0x88, 0x5b, 0x34, 0xbd, 0x72, 0x97, 0x16, 0x3e,
  0x90, 0x41, 0x80, 0x3d, 0x17, 0x2d, 0x3c, 0x3d, 0x9b, 0x0b, 0x1c, 0xbe,
  0x63, 0x76, 0x50, 0x3d, 0x2b, 0x6c, 0xf2, 0xbc, 0x65, 0xb5, 0x41, 0xbd,
  0xc0, 0xed, 0xd2, 0x3d, 0x68, 0x13, 0x13, 0x3e, 0x68, 0x47, 0x15, 0xbe,
  0xdb, 0x02, 0xfc, 0x3d, 0x75, 0x74, 0x2a, 0x3e, 0x1c, 0x45, 0x77, 0x3b,
  0x75, 0xd5, 0x25, 0x3e, 0x6c, 0xe9, 0x14, 0xbe, 0x1c, 0x48, 0x28, 0xbe,
  0x1f, 0x47, 0x1e, 0xbe, 0x13, 0x8b, 0xf0, 0xbd, 0xc3, 0xcf, 0x35, 0x3e,
  0xeb, 0x78, 0xc4, 0x3d, 0x1c, 0xa4, 0x7d, 0x3d, 0x5b, 0xa1, 0xf3, 0x3c,
  0x11, 0x2e, 0x0f, 0x3e, 0x71, 0x15, 0xad, 0xbd, 0xbf, 0x65, 0xc2, 0x3d,
  0xb8, 0xd9, 0x08, 0xbd, 0x81, 0xab, 0x02, 0xbe, 0xae, 0xfb, 0x83, 0xbd,
  0x43, 0x01, 0x2a, 0x3e, 0x06, 0x99, 0x93, 0x3d, 0xbe, 0x81, 0xb9, 0xbd,
  0x65, 0x23, 0xf0, 0x3c, 0x5f, 0x58, 0xe4, 0xbc, 0xa3, 0xcf, 0x02, 0x3e,
  0xde, 0x35, 0x92, 0xbd, 0x17, 0xfe, 0x29, 0xbe, 0xc4, 0x1b, 0x1d, 0x3e,
  0x00, 0xee, 0x01, 0x3e, 0x58, 0x56, 0x3e, 0xbd, 0x80, 0x46, 0x34, 0xbd,
  0xb8, 0xa6, 0x68, 0xbd, 0xb7, 0x0f, 0x9c, 0x38, 0x38, 0x7a, 0x16, 0x3e,
  0xe0, 0xdd, 0x1f, 0xbe, 0x77, 0xb2, 0xac, 0x3c, 0x65, 0xfa, 0x60, 0xbd,
  0x18, 0xd6, 0x51, 0x3d, 0xca, 0x44, 0xf0, 0xbd, 0xec, 0xa1, 0x64, 0x3d,
  0x02, 0x5b, 0x32, 0xbe, 0xda, 0x53, 0xb4, 0xbd, 0x1b, 0xaa, 0x12, 0x3e,
  0x66, 0xd8, 0x21, 0x3e, 0x70, 0x2d, 0xe4, 0x3d, 0x75, 0x62, 0xf0, 0x3c,
  0x55, 0xad, 0xc0, 0xbd, 0xbe, 0xf3, 0x09, 0x3e, 0x77, 0x84, 0xb9, 0xbd,
  0x90, 0xac, 0x76, 0x3c, 0x6c, 0x28, 0x96, 0xbd, 0xde, 0xbf, 0x11, 0xbe,
  0x85, 0x34, 0xdd, 0x3d, 0xd0, 0xf0, 0xc1, 0x3d, 0x22, 0x5a, 0x47, 0x3d,
  0xd3, 0x80, 0x28, 0xbd, 0x79, 0xbd, 0x13, 0x3e, 0xbe, 0x82, 0x03, 0x3c,
  0x93, 0x16, 0x1c, 0x3e, 0x63, 0x34, 0x19, 0xbd, 0xb5, 0x8a, 0x18, 0x3d,
  0x2d, 0xed, 0x0f, 0xbe, 0x08, 0x34, 0x29, 0x3e, 0x85, 0x64, 0xd7, 0xbb,
  0x04, 0xff, 0x15, 0x3e, 0x6a, 0x1d, 0x18, 0xbe, 0xfa, 0xc5, 0xd9, 0x3d,
  0x67, 0xc4, 0xf2, 0xbd, 0x96, 0x11, 0x85, 0x3b, 0x3b, 0x83, 0xb3, 0x3d,
  0x08, 0x4c, 0x10, 0xbe, 0xc1, 0xb5, 0xc2, 0x3d, 0xb0, 0x67, 0x16, 0x3e,
  0x04, 0x9c, 0x68, 0x3d, 0x77, 0x46, 0x35, 0x3e, 0x0b, 0x78, 0x38, 0x3e,
  0x40, 0x3a, 0x14, 0x3e, 0xcf, 0xfe, 0xe5, 0xbc, 0x0c, 0x30, 0x47, 0x3d,
  0x35, 0x63, 0x00, 0x3e, 0x22, 0x31, 0xab, 0x3d, 0x87, 0x6c, 0xfd, 0x3d,
  0x4e, 0x45, 0xb5, 0xbd, 0xa0, 0x23, 0xcd, 0x3c, 0xad, 0xda, 0xaa, 0x3c,
  0x50, 0xd0, 0x5f, 0x3b, 0xc3, 0xca, 0xc7, 0x3d, 0x41, 0x3a, 0xd6, 0xbd,
  0xf4, 0x55, 0x18, 0xbe, 0xa4, 0x9f, 0x29, 0x3e, 0xb1, 0x5d, 0x31, 0x3e,
  0x4f, 0xe4, 0x51, 0x3d, 0x07, 0xe1, 0x28, 0xbe, 0x35, 0x02, 0x83, 0xbd,
  0x36, 0x24, 0x17, 0x3e, 0x7c, 0x62, 0xd7, 0x3d, 0x8f, 0x9b, 0xaf, 0x3d,
  0x3a, 0x30, 0xc7, 0xbc, 0x04, 0xb5, 0x3e, 0xbc, 0xe4, 0x58, 0xd4, 0x3d,
  0x02, 0x6c, 0xd8, 0x3d, 0xca, 0xf3, 0xd0, 0x3d, 0x01, 0xb6, 0x2b, 0x3e,
  0x0d, 0x46, 0xf3, 0xbd, 0x6a, 0x32, 0x2c, 0xbd, 0x6d, 0x60, 0x30, 0x3e,
  0x7f, 0xb2, 0x0c, 0x3e, 0x9f, 0x11, 0x2c, 0xbe, 0x61, 0x5e, 0x1d, 0x3e,
  0x34, 0xa3, 0x38, 0xbd, 0x98, 0x41, 0xe0, 0x3d, 0x50, 0x2d, 0xdd, 0x3d,
  0x13, 0x37, 0x87, 0xbd, 0xf8, 0x6d, 0x5c, 0xbd, 0x8a, 0x52, 0x30, 0xbc,
  0xcd, 0xb5, 0xb8, 0xbd, 0xdb, 0x94, 0xc7, 0xbc, 0x7e, 0xf1, 0xf8, 0xbd,
  0xc6, 0x61, 0x88, 0x3c, 0xc5, 0x6c, 0x03, 0x3e, 0xd8, 0xb0, 0x01, 0xbe,
  0x64, 0xe3, 0x88, 0x3d, 0x2a, 0x79, 0xe8, 0xbd, 0xf9, 0xf6, 0x06, 0xbd,
  0x63, 0x27, 0x28, 0x3e, 0xa5, 0xe6, 0x15, 0xbe, 0x99, 0x7f, 0x00, 0x3e,
  0x09, 0x9a, 0x01, 0x3e, 0x35, 0x15, 0xe1, 0xbd, 0xd9, 0x14, 0x20, 0xbe,
  0x2a, 0xb1, 0xb8, 0xbd, 0xe9, 0x9a, 0x16, 0xbe, 0xd2, 0x7c, 0x24, 0xbe,
  0x8a, 0xe0, 0x12, 0xbe, 0xa9, 0x4f, 0xe1, 0x3d, 0xef, 0xa5, 0x29, 0x3e,
  0xf2, 0x5f, 0x39, 0x3e, 0x0e, 0x2f, 0x25, 0xbe, 0x9b, 0xab, 0x8a, 0x3c,
  0xc7, 0x3d, 0x2e, 0x3e, 0x64, 0x29, 0xf8, 0x3c, 0x7b, 0xa7, 0x0c, 0xbe,
  0x2a, 0x8d, 0x16, 0xbe, 0xb0, 0x6b, 0x9f, 0xbd, 0x42, 0xb8, 0x00, 0xbe,
  0xd4, 0x26, 0xdf, 0x3d, 0xdd, 0x5c, 0x26, 0x3d, 0xdc, 0x1f, 0x80, 0xbd,
  0x1f, 0x57, 0x9b, 0xbc, 0x15, 0xb1, 0xbb, 0x3d, 0xd1, 0xb3, 0xf2, 0xbd,
  0xf2, 0x04, 0xb2, 0x3c, 0x03, 0xf4, 0xce, 0xbd, 0x2b, 0x40, 0xd2, 0xbc,
  0x67, 0xbe, 0xc6, 0xbd, 0xb2, 0x85, 0x05, 0xbe, 0x74, 0x8c, 0x29, 0xbe,
  0xc2, 0xfe, 0xff, 0xff, 0x04, 0x00, 0x00, 0x00, 0x50, 0x00, 0x00, 0x00,
  0xb6, 0x30, 0xc7, 0xbb, 0xfb, 0x45, 0x4d, 0xbc, 0x63, 0x24, 0x36, 0xbc,
  0xaf, 0xfd, 0x8e, 0xbc, 0x46, 0xc3, 0x21, 0xbc, 0x42, 0xf0, 0x25, 0x3c,
  0xbc, 0xef, 0x52, 0xbc, 0x92, 0x8d, 0x7c, 0x3c, 0x8c, 0xc8, 0x11, 0xbc,
  0x2d, 0xcd, 0x0b, 0xbc, 0x14, 0x45, 0xf8, 0x3b, 0xd6, 0x9c, 0x82, 0xbd,
  0xe6, 0xb2, 0x55, 0xbc, 0x90, 0xda, 0x5c, 0xbc, 0x24, 0x29, 0x4b, 0xbc,
  0x9d, 0x6e, 0x16, 0x3c, 0x1e, 0x7b, 0x59, 0x3c, 0xd9, 0x9b, 0xc3, 0xbb,
  0x14, 0x4c, 0x11, 0x3c, 0x60, 0xec, 0xd1, 0xbb, 0x1e, 0xff, 0xff, 0xff,
  0x04, 0x00, 0x00, 0x00, 0x28, 0x00, 0x00, 0x00, 0x74, 0x2f, 0x35, 0xbb,
  0x00, 0x00, 0x00, 0x00, 0x44, 0x18, 0x17, 0xbc, 0x33, 0xd5, 0x5c, 0x3c,
  0x10, 0xd9, 0x98, 0x3c, 0xb1, 0x26, 0xd8, 0xbc, 0xbe, 0x57, 0x98, 0xbc,
  0x5c, 0x40, 0x12, 0xbc, 0x85, 0x64, 0x8a, 0xbc, 0x00, 0x98, 0xaa, 0xb9,
  0x52, 0xff, 0xff, 0xff, 0x04, 0x00, 0x00, 0x00, 0x0c, 0x00, 0x00, 0x00,
  0xad, 0x84, 0x95, 0x3c, 0x4f, 0x45, 0x6d, 0xbc, 0xc2, 0x46, 0xea, 0x3b,
  0x54, 0xfb, 0xff, 0xff, 0x58, 0xfb, 0xff, 0xff, 0x0f, 0x00, 0x00, 0x00,
  0x4d, 0x4c, 0x49, 0x52, 0x20, 0x43, 0x6f, 0x6e, 0x76, 0x65, 0x72, 0x74,
  0x65, 0x64, 0x2e, 0x00, 0x01, 0x00, 0x00, 0x00, 0x14, 0x00, 0x00, 0x00,
  0x00, 0x00, 0x0e, 0x00, 0x18, 0x00, 0x14, 0x00, 0x10, 0x00, 0x0c, 0x00,
  0x08, 0x00, 0x04, 0x00, 0x0e, 0x00, 0x00, 0x00, 0x14, 0x00, 0x00, 0x00,
  0x1c, 0x00, 0x00, 0x00, 0x24, 0x01, 0x00, 0x00, 0x28, 0x01, 0x00, 0x00,
  0x2c, 0x01, 0x00, 0x00, 0x04, 0x00, 0x00, 0x00, 0x6d, 0x61, 0x69, 0x6e,
  0x00, 0x00, 0x00, 0x00, 0x04, 0x00, 0x00, 0x00, 0xcc, 0x00, 0x00, 0x00,
  0x84, 0x00, 0x00, 0x00, 0x50, 0x00, 0x00, 0x00, 0x14, 0x00, 0x00, 0x00,
  0x00, 0x00, 0x0e, 0x00, 0x1a, 0x00, 0x14, 0x00, 0x10, 0x00, 0x0c, 0x00,
